<unk>
<s>
</s>
<pad>
<n>
▁
,
.
0
1
2
-
:
3
)
5
4
"
9
▁(
(
6
'
8
_
7
/
;
▁"
▁=
’
?
*
>
▁-
!
▁{
▁$
▁+
}
%
="
]
\
▁*
).
▁<
);
▁“
▁}
{
$
[
▁[
=
),
**
",
“
...
<
#
”
▁\
."
+
()
</
▁'
▁–
▁&
://
▁//
.”
("
▁@
//
^
。"
">
->
();
,”
":
▁|
|
~
::
@
('
:"
▁#
▁—
▁$\
&
·
_{
▁*/
▁</
–
▁the
▁of
▁and
▁to
▁a
▁in
s
▁is
▁for
▁that
▁with
▁on
▁it
▁be
▁as
▁I
▁was
▁by
▁are
t
▁you
▁this
▁from
▁The
▁at
▁an
▁or
▁have
▁not
▁can
The
a
▁has
▁were
▁will
A
▁which
▁but
d
I
▁we
▁if
▁your
m
▁he
▁one
▁all
▁his
▁more
x
e
n
▁their
▁they
▁also
i
▁been
▁when
▁about
S
▁so
▁do
▁my
▁time
▁new
▁out
▁said
▁A
▁would
c
▁other
▁had
▁who
▁there
▁In
▁up
▁like
▁than
b
▁use
▁into
ing
p
▁its
▁no
▁two
y
▁first
▁some
▁may
▁only
▁get
C
▁after
▁It
▁our
▁what
Category
r
g
▁This
ed
▁any
re
f
▁just
▁such
▁using
▁these
▁over
o
▁data
▁used
▁between
▁her
In
in
h
▁them
▁people
▁then
▁me
B
k
com
▁how
▁could
▁i
▁return
▁should
▁de
▁We
▁where
▁well
D
▁patients
▁need
▁most
▁make
▁work
▁years
▁because
er
▁way
▁through
v
l
▁want
u
▁class
▁each
▁C
▁she
id
▁same
▁both
▁He
th
▁being
▁many
to
ve
▁now
T
▁set
▁high
P
▁function
▁very
▁during
▁know
▁case
▁before
ly
▁system
▁see
▁under
▁number
▁while
▁different
▁those
▁public
▁value
▁even
▁year
▁don
▁found
R
▁made
▁U
▁back
▁here
z
This
▁name
▁three
E
It
▁Q
▁study
or
What
▁him
F
▁without
▁last
▁type
▁p
▁much
j
▁group
▁part
▁right
▁did
We
▁good
▁end
type
▁S
▁T
▁information
▁file
▁long
L
▁does
the
▁If
▁code
▁cells
▁second
▁v
▁still
▁example
▁B
▁help
▁us
▁take
▁order
ll
▁think
M
w
▁state
▁following
▁am
▁against
es
▁P
H
▁find
▁including
▁day
▁go
▁method
N
▁You
▁non
and
name
▁own
▁down
on
▁results
▁For
You
▁around
Let
▁control
▁since
▁No
▁off
▁another
▁e
q
▁Let
▁New
▁within
div
▁line
▁going
get
▁best
▁show
is
▁But
▁process
▁must
If
▁cell
X
▁really
▁life
▁change
▁c
en
▁support
▁something
▁F
▁world
▁x
G
▁treatment
▁game
▁test
▁next
▁team
▁every
▁problem
▁per
▁result
▁As
▁provide
▁home
▁present
▁However
To
▁D
▁based
▁m
al
▁place
▁having
▁point
▁possible
▁known
▁might
▁say
▁better
▁too
▁E
int
▁form
▁M
▁user
K
▁And
▁power
▁few
▁current
▁available
O
data
▁level
▁single
▁look
▁small
▁days
▁R
▁They
▁list
▁important
▁great
▁water
▁low
▁N
▁model
▁large
▁re
▁left
▁error
V
▁n
▁area
▁b
▁less
this
▁There
▁family
▁court
ref
http
▁called
▁run
▁self
▁four
▁above
▁L
▁able
▁due
▁free
import
▁These
▁children
▁To
▁effect
▁working
▁little
▁create
▁come
▁top
▁image
▁true
▁several
▁things
▁United
▁device
▁got
▁So
▁post
▁int
▁company
For
▁f
▁start
▁least
▁size
▁side
▁human
▁given
▁service
▁open
▁common
▁always
▁give
▁either
▁G
▁says
▁never
▁site
set
▁field
▁local
▁analysis
As
▁call
▁include
▁What
▁light
▁until
string
▁means
▁un
▁response
▁women
▁whether
▁government
▁health
▁activity
▁lot
end
text
▁put
▁full
▁cases
▁levels
▁significant
▁string
▁sure
▁y
▁development
▁higher
▁body
▁version
▁specific
up
▁H
▁r
▁already
▁associated
▁age
▁else
▁week
www
▁doesn
li
▁rate
▁program
▁play
▁care
▁total
▁key
But
able
▁changes
▁question
▁increased
▁add
man
▁why
▁l
W
▁application
▁later
▁further
org
Name
▁o
▁again
He
▁months
▁disease
▁often
How
▁All
▁main
▁object
▁access
▁d
▁times
Y
▁h
▁season
▁la
▁told
▁try
▁project
if
▁multiple
▁States
▁role
▁required
▁business
▁content
▁values
▁increase
▁J
▁early
▁page
▁American
▁similar
▁position
▁K
class
no
var
▁risk
year
▁void
▁studies
▁range
▁var
▁making
▁effects
▁compared
▁expression
There
▁event
▁read
▁source
▁groups
▁along
▁done
▁among
▁let
▁real
References
And
▁report
U
▁g
▁below
▁That
▁video
▁far
So
▁man
▁research
▁surface
▁When
▁University
▁She
▁action
Type
▁trying
▁however
it
▁addition
▁mean
▁systems
▁issue
▁million
▁school
▁won
an
▁fact
▁O
▁provided
▁series
frac
▁keep
▁lower
▁players
▁thing
▁according
of
ers
▁final
▁various
▁course
▁film
▁V
▁country
▁law
▁experience
▁doing
▁third
▁showed
▁together
▁reported
time
▁added
html
us
▁love
▁State
▁array
▁though
▁private
▁base
▁head
value
▁protein
▁away
▁evidence
▁become
▁didn
▁five
▁potential
▁space
▁across
▁On
as
for
▁significantly
▁major
test
add
▁seen
J
▁Trump
▁al
▁view
▁via
▁X
▁general
String
▁pre
▁old
▁cancer
▁text
On
▁person
▁factors
▁enough
▁shown
▁design
px
▁community
▁looking
▁members
▁actually
based
▁clinical
▁city
include
▁structure
▁big
Is
▁received
When
▁getting
key
ID
▁patient
▁period
▁blood
▁works
▁performance
▁once
▁services
▁solution
▁conditions
▁id
▁short
▁energy
▁bit
▁described
right
▁percent
▁const
ic
▁past
▁men
out
▁money
▁table
▁app
▁k
▁today
▁hand
▁included
▁normal
▁que
▁quality
at
▁One
▁material
▁check
▁hard
▁took
▁Court
left
▁et
new
▁simple
▁cannot
▁likely
Z
▁makes
▁product
function
file
▁future
Data
▁media
st
▁growth
▁amount
▁At
▁US
▁came
▁devices
▁related
▁points
▁performed
▁release
▁output
▁member
My
▁approach
▁yet
List
▁needs
▁feel
▁instead
line
▁pressure
▁car
▁particular
my
▁production
▁social
▁methods
le
▁An
▁factor
▁network
▁National
▁products
size
▁book
▁false
▁cost
▁County
▁air
▁cause
▁co
No
▁created
▁record
▁history
▁features
▁positive
▁police
▁en
old
https
Q
▁shows
▁terms
▁anti
▁started
▁After
▁License
▁ever
▁York
▁seems
▁recent
▁display
▁students
▁close
io
Id
td
▁comes
table
app
▁w
▁property
▁region
js
▁lead
▁others
▁observed
▁move
▁food
▁former
▁taken
▁hours
▁May
list
▁review
▁clear
▁market
▁signal
▁live
▁games
▁running
log
▁minutes
▁population
▁color
▁problems
▁went
▁whole
▁original
▁inside
▁date
▁users
▁month
▁thought
▁standard
▁idea
▁kind
▁tried
▁includes
▁rather
▁null
▁City
de
▁W
▁u
▁World
▁software
▁memory
▁website
▁links
▁needed
▁input
▁job
mm
▁element
▁online
▁half
▁story
▁allow
▁target
▁art
ul
▁probably
▁anything
define
▁server
▁issues
▁My
▁upon
public
▁death
▁involved
▁j
net
▁night
With
▁developed
▁events
▁additional
▁six
▁expected
▁someone
▁weeks
▁respectively
▁trial
▁special
▁certain
▁understand
▁build
▁child
▁reason
▁easy
▁acid
▁released
▁android
▁address
▁message
▁difference
▁With
▁provides
▁South
▁believe
▁files
▁face
▁building
▁primary
▁contact
▁held
▁currently
▁static
▁OF
▁require
▁answer
php
▁complete
▁gene
▁near
by
▁individual
▁String
▁decision
▁follow
sqrt
▁prior
▁areas
▁party
▁matter
▁search
▁considered
span
▁music
▁statement
▁types
▁taking
self
▁species
▁especially
▁technology
▁etc
▁determine
code
▁complex
▁request
▁plan
▁almost
ar
▁write
▁account
▁weight
▁House
▁style
▁obtained
▁March
▁front
▁step
user
▁young
▁medical
▁North
▁http
fig
co
▁lines
▁heart
▁properties
▁layer
▁President
▁sub
▁previous
▁asked
▁elements
▁loss
▁room
Value
▁default
▁average
▁deal
▁John
▁pay
▁news
▁everything
▁Our
▁See
▁isn
That
▁invention
os
▁St
▁z
▁security
▁web
▁questions
from
▁section
▁management
▁drug
▁continue
▁simply
▁path
▁itself
▁played
▁term
▁directly
▁paper
▁outside
▁operation
item
▁language
input
▁presence
▁June
▁became
script
▁unit
▁effective
▁difficult
min
▁Mr
▁white
▁necessary
path
▁flow
ie
▁ago
▁temperature
All
▁located
▁active
one
▁recently
▁offer
▁player
▁training
▁tell
▁index
▁interest
▁designed
▁turn
▁status
▁reference
void
▁house
▁greater
▁black
like
▁limited
▁nothing
▁length
▁longer
▁published
▁quite
▁ability
▁location
▁particularly
Here
One
▁stop
ity
▁personal
▁THE
label
▁strong
▁July
▁link
▁January
▁article
all
▁identified
▁wrong
▁title
▁System
▁reduced
▁behind
alpha
▁gas
▁suggest
▁companies
▁double
▁images
▁April
▁store
▁anyone
▁OR
▁industry
▁break
CR
▁defined
▁share
param
▁copy
▁options
▁match
▁late
▁thus
▁environment
un
▁states
▁wanted
▁relationship
▁background
▁therapy
▁written
▁office
▁built
▁national
do
▁usually
▁option
▁models
▁variable
▁impact
▁q
▁Is
▁computer
▁generally
▁pass
▁stage
▁block
▁details
▁coming
▁rights
▁force
View
▁determined
▁district
▁win
bar
▁practice
▁email
index
▁words
tr
▁DNA
▁price
▁pretty
▁produced
▁forward
▁vehicle
▁Pat
▁please
ness
go
▁takes
▁entire
▁America
▁numbers
▁president
▁looks
▁print
▁center
▁bad
▁policy
field
▁fine
▁physical
▁functions
▁followed
▁unique
▁applied
▁Co
▁phase
term
Get
form
▁political
After
am
▁September
▁previously
File
▁District
▁global
▁writing
▁brain
▁October
▁mass
▁sequence
▁applications
▁highly
▁Here
External
▁China
day
▁database
▁command
lib
▁tissue
At
with
▁word
▁Google
▁formed
▁cross
▁School
▁By
▁se
From
▁speed
ion
▁II
▁rates
▁therefore
▁lost
Now
pi
▁rest
▁natural
Object
▁character
▁August
▁multi
▁hit
▁condition
▁saying
▁hope
color
▁context
▁allows
▁worked
▁distribution
▁living
▁selected
▁November
Suppose
▁direct
▁items
▁useful
▁phone
less
▁treated
not
▁career
▁subject
▁receive
▁sample
el
▁caused
▁feature
▁components
▁countries
▁December
▁improve
▁correct
▁initial
▁oil
▁pain
const
▁Department
▁sense
title
▁goal
▁friends
▁His
▁motion
ation
▁red
▁cut
See
▁instance
▁mind
▁href
▁die
▁drive
▁parts
▁focus
▁uses
▁began
▁differences
▁Then
▁revealed
▁campaign
▁West
▁document
▁findings
▁vs
▁item
▁parameters
▁bring
▁pattern
▁screen
▁named
state
▁proposed
▁column
▁heat
▁How
▁materials
▁update
▁leading
▁presented
▁reading
▁General
length
ch
▁direction
▁De
▁led
▁super
By
▁sites
▁leave
ton
java
▁saw
▁established
▁frequency
ne
▁playing
▁band
▁overall
However
Text
▁everyone
▁While
et
▁contains
▁sent
▁connection
base
ist
▁di
▁divided
nd
te
▁knowledge
br
▁reduce
▁mode
▁client
▁ground
▁changed
▁ways
Test
▁reports
▁load
▁basis
▁samples
▁wrote
▁administration
▁map
▁width
▁consider
▁damage
▁board
▁although
▁easily
▁pro
width
▁international
▁San
▁height
▁host
▁err
date
▁woman
▁component
▁soon
▁activities
▁send
▁mg
url
▁success
▁seem
▁fun
▁negative
use
▁measured
so
rs
link
▁circuit
▁metal
▁central
▁tumor
▁Some
▁requires
▁earlier
▁Do
▁track
▁el
map
▁male
▁highest
str
▁storage
▁mice
▁remove
An
array
▁package
true
▁Suppose
▁surgery
▁Re
sub
▁box
▁select
▁allowed
▁safety
em
ia
▁processing
▁staff
▁Center
▁skin
▁failed
▁war
▁situation
▁completely
New
Error
▁portion
▁couple
▁increasing
▁purpose
▁relative
▁count
▁tax
▁CD
▁charge
▁injury
▁February
son
func
py
▁window
land
▁hold
▁expect
▁save
▁machine
▁official
▁gives
▁India
sum
They
▁mechanism
▁prevent
▁failure
image
▁stay
▁prime
▁cover
▁education
da
▁League
Exception
▁announced
▁album
val
na
▁button
ma
▁football
▁station
▁God
▁transfer
▁California
▁whose
▁Thus
▁collection
▁studied
▁individuals
▁tool
Set
▁typically
Key
▁connected
▁binding
▁goes
▁digital
▁legal
▁separate
▁fire
▁Dr
▁extra
▁Friday
▁wide
▁testing
▁providing
top
▁mobile
max
▁independent
▁meet
▁TV
▁card
▁derivative
▁produce
▁appears
▁latest
▁starting
▁visit
▁throughout
▁technique
▁La
▁learn
▁novel
▁ratio
▁variety
▁attention
▁themselves
▁concentration
▁setting
▁resistance
ment
True
▁reaction
▁query
▁federal
▁behavior
▁conventional
▁larger
▁gets
row
▁costs
▁proteins
error
▁improved
▁War
▁volume
content
mu
▁row
▁bar
page
▁culture
▁ask
age
▁def
▁English
▁fast
▁More
▁existing
▁ensure
▁popular
▁stress
▁containing
ism
style
▁Y
▁military
▁sound
▁understanding
▁appear
▁From
▁respect
▁degree
off
▁gave
▁internal
view
▁moved
▁combination
▁relatively
▁meeting
be
▁photo
▁node
▁claim
related
▁interface
▁remains
▁AND
▁UK
▁financial
▁talk
▁Inc
▁generated
▁formation
▁decided
▁actual
▁develop
▁choice
▁First
▁format
▁club
induced
▁hospital
Context
▁Now
▁alone
cm
▁Washington
beta
▁avoid
▁White
▁Monday
▁techniques
which
▁units
group
▁died
▁resources
▁infection
▁son
▁border
▁Al
▁female
She
ally
db
▁European
body
▁receptor
▁moment
▁town
▁diagnosis
config
ra
▁professional
▁London
▁seven
me
begin
▁attack
▁quickly
▁sign
▁genes
▁British
▁International
▁customers
▁processes
▁wall
▁Of
▁Although
ling
▁List
▁identify
▁learning
▁Facebook
free
▁click
▁apply
▁replacement
▁himself
Item
▁appropriate
▁basic
▁distributed
▁movement
▁tests
▁except
▁note
▁min
um
Thanks
▁comments
▁exactly
▁bone
▁chance
While
▁safe
▁lack
▁smaller
▁creating
▁nature
▁reduction
▁PM
▁solid
▁bottom
▁comment
▁Z
▁sex
▁fully
▁rules
▁places
▁channel
▁adding
def
▁moving
▁election
Table
but
▁communication
per
▁opportunity
▁regular
▁frame
▁act
▁Art
▁missing
▁nil
▁struct
ta
▁director
▁objects
▁morning
▁removed
▁Since
▁race
▁exposure
▁subjects
▁critical
▁animals
info
▁root
▁buy
▁programs
▁Group
▁engine
button
▁land
▁offers
▁fixed
▁characters
Service
▁News
▁Park
▁demonstrated
▁limit
▁nearly
▁rats
▁influence
▁Or
▁wasn
State
▁perfect
Image
▁score
▁successful
▁Also
▁returned
▁tools
▁placed
▁films
▁immediately
▁served
▁showing
Add
pm
▁Not
▁daily
▁officials
▁std
▁char
▁choose
di
▁sometimes
▁song
▁parents
▁plans
▁road
▁mother
▁round
▁obtain
▁task
▁towards
struct
Path
▁investigation
▁IN
▁Tuesday
▁characteristics
▁plant
▁capacity
▁argument
see
kg
▁ready
▁Public
▁functional
▁healthy
▁teams
▁rule
▁giving
dev
▁figure
▁Windows
▁scale
▁liquid
▁Therefore
▁platform
▁resulting
api
▁loop
▁claims
▁Street
ce
Date
▁dose
▁Canada
▁para
▁maximum
▁decreased
layout
ized
▁brought
▁closed
▁opening
▁regarding
▁press
▁procedure
▁lives
▁auto
▁plasma
▁fall
▁father
▁projects
start
▁met
▁operations
▁eight
▁switch
▁distance
▁library
▁handle
▁contrast
▁con
▁names
▁High
la
▁appeal
node
ca
rd
▁core
▁Act
ant
▁confirmed
▁notice
▁perform
▁controls
▁agreement
▁sort
▁molecular
▁friend
ley
▁happen
born
ization
Do
▁economic
▁symptoms
▁middle
▁reasons
▁sources
select
▁detection
▁detected
▁construction
xml
▁achieve
▁passed
▁install
object
False
▁Sunday
▁supported
▁Your
▁student
▁apparatus
▁remain
post
▁variables
▁billion
core
ian
let
▁turned
▁reach
▁summer
▁radio
len
▁Thursday
▁tested
▁contract
ine
▁module
ml
ry
▁poor
▁eye
Size
▁returns
▁structures
▁suggested
▁supply
github
▁biggest
▁medium
mathbb
Info
▁operating
▁custom
▁vote
version
▁inter
▁drugs
bin
▁shot
▁follows
ui
▁fields
▁Wednesday
▁records
▁filed
▁script
▁families
android
▁Get
▁upper
▁benefits
▁movie
head
▁piece
▁approximately
▁calls
Calculate
▁survival
▁nice
▁panel
▁equal
▁combined
▁modern
▁completed
▁fit
▁concentrations
rm
▁liver
▁hot
▁Health
▁picture
▁forms
▁measure
▁older
▁Europe
▁voltage
▁interesting
sp
▁IS
▁David
▁picked
▁finding
▁beginning
▁le
▁der
▁shape
▁heard
▁conducted
using
▁spent
▁micro
▁majority
json
▁substrate
▁Day
▁trade
▁finally
▁https
▁continued
▁chronic
level
▁serum
▁optical
▁equipment
▁fans
▁Texas
▁letters
▁investigated
Of
▁stuff
ge
▁recorded
▁increases
▁relevant
▁Saturday
that
▁mechanisms
▁noted
▁exist
▁East
create
▁organization
▁happy
txt
▁org
▁filter
▁yourself
▁onto
▁indicate
▁da
▁expressed
▁src
▁density
▁Me
▁sales
▁external
▁corresponding
▁watch
ED
box
▁driver
▁growing
▁traditional
led
▁College
▁activation
▁Chinese
▁Australia
▁responsible
▁constant
▁wife
▁blog
return
▁becomes
▁manner
According
▁steps
▁selection
▁huge
▁camera
Class
▁domain
ting
Our
▁motor
▁caption
result
est
▁fluid
▁effort
▁parent
▁worth
▁workers
▁carried
count
sh
▁association
▁hearing
ate
read
specific
▁solutions
▁Obama
▁serious
static
▁French
sec
main
▁import
▁challenge
open
▁agent
▁muscle
▁alternative
cc
▁toward
▁delivery
Map
▁hands
▁Japanese
he
▁entry
▁Twitter
▁fight
▁benefit
▁door
▁chain
▁beyond
▁contain
▁books
▁severe
Some
▁evaluated
▁letter
▁java
▁occurred
Re
▁matrix
▁deep
Array
▁magnetic
▁pick
▁session
▁ideas
▁affected
▁paid
▁Pro
▁driving
▁shared
▁largest
▁console
▁Cup
▁measures
source
▁defendant
▁kids
▁NULL
height
▁electronic
▁log
Time
App
▁maybe
▁imaging
▁des
▁killed
▁causes
▁join
Model
▁attempt
back
▁echo
▁Because
ir
init
▁thinking
▁profile
res
▁regions
▁stand
▁James
▁developing
run
▁whereas
▁travel
▁despite
model
▁green
▁serve
▁happened
▁appeared
▁Data
▁examined
▁strength
▁Red
▁nearest
▁random
User
▁responses
▁parameter
▁specifically
▁wait
▁agents
Why
▁virus
▁acute
▁felt
▁plus
we
▁ones
▁eyes
▁Two
▁Apple
▁Black
▁clearly
▁generate
▁signed
Not
num
▁affect
▁classes
▁hear
il
▁Council
▁wants
▁Be
▁otherwise
▁bill
▁requirements
▁protected
▁AM
▁myself
▁Most
▁indicated
▁induced
▁commercial
▁opened
▁efforts
▁transmission
▁born
▁decrease
▁port
▁author
▁occur
▁generation
▁Man
img
Can
▁exercise
▁parties
▁television
First
men
▁Can
▁pair
print
▁runs
Request
▁membrane
▁Association
ty
src
▁clean
Event
▁strategy
▁virtual
▁foreign
▁remember
▁opinion
Code
ies
way
▁receiving
▁credit
df
▁fuel
▁leader
▁signals
▁births
▁protection
▁forces
ray
▁customer
▁ex
▁Party
▁enter
▁actions
▁Paul
▁adult
▁ten
▁essential
▁protect
Node
▁controlled
▁configuration
▁ball
▁cycle
ary
▁Service
▁stored
▁API
▁comparison
ns
▁enjoy
▁schools
▁transport
▁nor
▁reached
▁mentioned
▁drop
▁del
▁vitro
▁ANY
▁stated
▁extends
▁theory
▁outcome
▁calling
▁NOT
Please
ro
col
▁Each
ad
▁beta
▁Free
dir
▁Michael
▁Go
▁exists
▁interested
▁scene
▁animal
▁goals
▁aim
▁German
▁Congress
▁patterns
▁desired
cell
▁App
▁catch
▁employees
Count
▁interview
side
▁begin
▁assembly
▁none
ts
ip
▁evaluate
▁installed
▁discussed
▁tree
▁knew
▁Ca
you
▁hour
▁Internet
▁Please
▁interaction
▁Japan
▁carbon
▁looked
▁England
▁manager
lin
▁edge
▁sold
▁collected
▁star
▁implementation
▁IL
▁talking
gen
▁blue
▁college
▁raised
▁hair
▁agreed
pre
port
dependent
▁sleep
▁skills
▁participants
▁beautiful
▁define
AS
▁represent
▁degrees
▁isolated
▁diseases
▁visual
▁sexual
▁floor
▁Minister
▁changing
▁proper
▁Her
▁mouse
▁housing
▁exchange
▁During
▁demand
▁issued
show
server
option
▁prepared
▁Foundation
▁compounds
▁traffic
Your
▁FOR
▁shall
▁finished
css
▁USA
Fig
▁fix
▁happens
▁operator
bit
▁department
apache
Index
▁officer
▁suggests
over
▁judgment
▁genetic
▁Furthermore
▁explain
▁referred
▁couldn
▁chemical
▁feet
▁stories
▁url
event
▁leads
▁str
▁birth
▁France
▁TO
▁Russia
▁introduced
err
▁describe
▁Both
▁bool
Manager
▁easier
▁mm
▁sets
im
▁secondary
▁heavy
▁zero
▁gain
▁CI
▁village
▁electric
▁nuclear
▁efficiency
▁errors
▁maintain
▁Just
long
These
Message
▁mid
▁properly
▁offered
▁brand
▁coach
▁Board
▁science
▁Even
▁Union
▁voice
▁directory
▁advantage
default
▁extremely
American
▁directed
util
▁century
template
▁girl
lambda
Then
false
▁advance
Any
▁ng
ter
▁template
▁settings
char
▁electrical
▁Cir
▁cent
▁intended
▁guys
▁investigate
▁Russian
▁planning
▁Such
▁achieved
query
▁capital
▁evaluation
▁tag
▁Indian
▁aren
▁analyzed
▁wouldn
▁assessment
▁King
▁advanced
▁label
▁minimum
module
tag
▁experimental
ive
▁description
▁thread
▁throw
▁resolution
Button
▁browser
ner
▁favorite
▁surgical
▁valid
ten
red
▁plate
▁purchase
▁River
point
▁income
▁syndrome
se
▁ahead
▁Air
▁Le
▁empty
▁bank
mo
▁efficient
Since
▁defense
▁wish
▁economy
▁Don
▁relates
▁Research
▁guy
▁quick
▁touch
▁environmental
OR
▁remaining
▁plays
first
▁thousands
▁Germany
▁slow
▁extension
▁guide
▁breast
▁plants
write
▁remainder
where
▁Post
▁ID
▁dead
▁vector
People
▁agree
Note
▁automatically
▁joined
▁lung
▁listed
range
▁outcomes
▁helped
▁Western
▁glass
▁pages
▁meaning
▁Android
phi
arg
▁unless
▁jobs
ng
▁stream
▁literature
▁download
▁excellent
▁replace
some
Read
▁float
▁rise
▁stock
Override
mathcal
▁express
ii
▁ring
▁Open
▁Florida
package
▁consistent
▁agency
▁recording
▁rat
▁concept
Also
▁certainly
▁conference
▁haven
▁alpha
parent
▁leaders
▁rare
▁fourth
▁George
▁allowing
block
message
▁perhaps
▁Institute
png
web
▁max
▁gone
Field
▁Super
▁importance
▁kept
▁progress
▁Office
ac
▁powerful
▁spring
▁officers
▁eventually
▁firm
▁estimated
▁posted
▁helps
▁slightly
▁owner
▁sell
▁linear
Content
▁fan
▁walk
client
▁occurs
▁chief
SELECT
▁license
▁Web
▁container
pone
Client
▁assessed
▁Time
▁push
▁capable
▁incident
▁Smith
▁exception
ka
▁authors
▁Code
System
▁insurance
▁weekend
▁terminal
home
▁deaths
▁explained
▁controller
▁candidate
▁recovery
▁Mac
Solve
action
▁inner
▁adults
▁draw
▁Copyright
▁gold
▁dark
▁competition
▁native
▁refer
▁stable
▁documents
▁Moreover
ms
▁El
▁continues
▁whom
▁grow
▁sale
MS
▁connect
▁clients
▁experiments
den
ab
▁Green
▁resource
▁enable
lang
▁daughter
▁annual
▁margin
request
▁FROM
▁gun
▁launch
▁carry
▁battery
▁views
▁correlation
▁mostly
▁straight
▁prices
▁transition
NO
▁mortality
▁vivo
▁procedures
▁charged
▁greatest
▁whatever
▁survey
▁internet
▁digit
▁charges
▁uint
▁messages
▁attached
endif
▁route
▁Company
Source
▁oral
document
Or
root
Which
▁laser
▁leaving
▁mental
lo
Color
▁improvement
▁managed
▁frequently
CD
▁definition
▁speech
▁spend
▁resulted
Another
Controller
▁senior
▁communities
▁solve
▁sentence
ler
▁dynamic
▁concerns
align
property
▁HIV
▁Republican
▁sensitivity
well
▁NO
▁compare
▁holding
format
▁Na
ur
down
▁documentation
▁spot
op
▁nine
are
▁residents
ni
▁Committee
▁dog
▁Software
order
▁sea
▁entered
▁shift
▁north
▁exposed
click
▁Use
▁league
▁val
find
▁seconds
▁raise
▁trans
▁seat
▁experienced
▁extent
▁nation
ol
mail
▁Test
▁depending
▁Microsoft
scale
Yes
▁duration
▁church
▁Using
▁cast
▁cool
▁appearance
▁successfully
amp
▁typical
▁sufficient
▁guess
▁spread
▁suitable
▁Central
▁Many
▁Star
Base
▁Times
▁balance
More
▁immune
▁twice
▁expensive
▁climate
▁enzyme
▁ice
▁versus
foo
▁Bank
▁judge
local
number
▁PC
▁covered
times
▁Africa
▁cellular
▁focused
▁asking
Group
▁joint
▁commonly
▁Un
▁modified
▁Set
▁oxygen
▁seeing
▁According
▁updated
▁sports
▁Road
▁prob
▁square
▁implement
US
can
▁prove
▁Mark
▁African
▁fill
▁discuss
▁Bar
bib
▁assess
▁photos
▁monitoring
▁denied
▁integer
▁sum
▁criminal
▁mainly
▁definitely
ING
▁coverage
google
▁noise
▁info
▁poly
ex
▁represents
▁fresh
▁File
▁criteria
▁starts
▁calculated
Config
▁forced
▁remained
▁AS
▁Hall
▁society
▁counter
▁budget
▁widely
Create
gamma
▁mixed
▁na
Result
▁subsequent
▁measurements
target
▁Senate
md
status
▁Police
▁extended
▁Home
▁fish
▁investment
▁People
load
▁derived
▁sheet
▁south
▁numerous
▁regulation
Two
▁contained
▁interactions
▁Calculate
▁businesses
context
▁possibly
▁ended
null
▁du
▁buffer
▁amazing
▁discovered
▁remote
▁Other
▁cold
▁radiation
▁trip
check
▁thereby
▁folder
▁Club
▁vehicles
▁feeling
▁audio
build
Open
▁girls
▁alcohol
▁aware
▁Israel
Just
▁violence
ize
▁possibility
▁composition
▁married
more
▁standards
▁articles
▁sensor
position
▁organic
▁husband
▁Circuit
▁Americans
II
▁ran
▁crime
▁therapeutic
nt
▁becoming
Last
▁font
▁angle
▁examples
▁faster
▁renal
▁injection
▁detail
search
▁synthesis
nu
▁hyper
ok
▁accept
▁convert
▁percentage
▁reality
▁challenges
▁arm
next
▁valve
▁semiconductor
▁finish
▁attacks
▁confidence
Figure
▁III
▁removal
▁demonstrate
▁advice
frame
▁purposes
▁train
▁continuous
center
▁absence
▁executive
▁unknown
Use
▁particles
ti
▁songs
Number
▁Church
▁networks
▁technical
service
ability
▁diabetes
summary
▁wild
ous
▁sensitive
▁Bay
▁measurement
▁incidence
que
izing
▁miles
▁plane
▁repair
Page
namespace
▁abuse
▁mechanical
Living
▁flat
sin
▁menu
▁baby
▁secure
▁cards
▁fat
▁limitations
▁positions
▁causing
infty
▁integrated
▁thanks
▁rapid
site
▁intervention
▁Long
▁cars
match
▁waiting
▁equivalent
▁Robert
▁linked
▁episode
▁supporting
▁discussion
ph
▁FIG
▁potentially
current
last
Simplify
Well
con
obj
▁und
▁emergency
dd
▁approaches
chi
▁Los
ff
▁Which
output
ee
▁correctly
▁lesions
mi
▁van
▁locations
Element
▁assume
▁Australian
echo
▁protocol
▁employed
▁researchers
▁partner
▁scores
▁Clinton
▁Canadian
▁net
▁laws
▁pieces
▁disorders
▁street
▁latter
▁specified
doc
▁reducing
▁learned
has
▁identity
▁displayed
▁Chicago
▁im
cos
▁inhibition
▁characterized
scope
ful
▁category
ted
▁bus
▁biological
ating
End
▁soft
▁expansion
uk
▁recommend
▁cash
▁accurate
▁interval
▁underlying
▁accuracy
▁parallel
ko
▁pull
▁examination
▁glucose
▁consumption
▁Press
sigma
▁Supreme
▁depends
▁funding
▁matches
▁diet
ado
filter
▁ends
▁knows
▁peak
▁Project
▁marketing
▁detailed
▁por
▁meant
example
▁password
▁involving
▁launched
▁claimed
▁effectively
▁delete
DB
email
▁notes
Action
ell
ish
▁relation
▁exact
▁speak
▁insulin
▁pictures
▁cardiac
▁zone
▁complications
Update
▁replaced
NAME
▁tumors
▁Brown
▁SQL
private
▁Best
▁represented
stream
sen
▁strategies
▁sides
▁split
▁lose
ai
▁Patent
▁Field
▁fair
▁believed
▁Any
▁master
▁HTML
▁disclosed
ri
▁aspects
▁stability
▁Big
▁Democratic
▁Mar
▁signs
▁wave
▁delay
ha
▁decades
her
▁gender
URL
theta
pt
ated
▁tube
▁Commission
▁EU
hr
▁mission
▁rows
▁Great
▁opportunities
▁promote
▁assay
▁distinct
▁weather
▁ON
ECT
▁Law
▁URL
▁treat
ier
▁Government
▁fear
▁trust
fa
ba
aligned
lt
▁thin
Handler
▁unable
▁requests
▁objective
▁bio
▁award
▁concern
Description
▁disk
▁encoding
▁cities
▁Further
ga
▁enhanced
▁detect
▁Games
▁relationships
OS
Other
▁feed
▁columns
▁reasonable
▁minute
▁Lake
eq
▁Java
fi
▁keeping
▁dry
▁plastic
▁outer
▁par
▁Only
▁pathway
▁supports
▁electron
▁Why
▁OS
▁trials
▁structural
▁algorithm
▁arguments
▁register
▁wear
▁decide
NS
▁minor
▁tissues
ER
▁Donald
About
▁attorney
car
▁leaves
▁substantial
Form
tic
▁injuries
▁Earth
pos
ance
▁winning
control
▁ship
▁offering
else
▁recommended
▁channels
▁cm
▁hundreds
NET
▁Services
▁scope
▁analyses
▁header
▁assigned
append
▁park
wood
▁receptors
Don
▁Amazon
▁conduct
▁Thomas
▁rock
▁spending
▁describes
▁modify
▁passing
▁Island
▁manufacturing
TM
▁civil
▁Over
month
▁Once
▁arrested
▁visible
response
dimensional
▁applicable
▁payment
usr
▁sounds
▁framework
▁molecules
Although
▁manage
▁strain
ville
▁maintenance
▁contribute
active
▁decisions
▁layers
pe
delta
De
▁Science
▁authorities
▁policies
▁committed
▁Iran
▁Martin
▁Johnson
▁Society
▁foot
▁copyright
▁putting
▁Bill
▁videos
▁assuming
Input
▁Mexico
▁pool
▁Game
▁counsel
▁proof
▁initially
▁Life
▁os
mer
▁brother
▁delivered
▁strongly
▁suggesting
ps
au
▁composite
description
byte
▁quarter
put
▁funds
▁respond
▁Their
▁origin
▁feedback
▁humans
▁Team
space
▁establish
call
▁Give
▁reverse
ham
▁plaintiff
▁Read
ey
light
▁Justice
▁setup
▁Hospital
▁artist
Mr
header
Response
▁shooting
▁Jan
▁circumstances
▁median
▁versions
▁helping
▁Security
▁peripheral
▁lens
▁mark
▁dedicated
▁res
▁hotel
▁tend
▁obvious
▁Sub
▁organizations
▁Sun
▁Hill
▁identification
▁eat
Click
ise
▁Version
Before
▁accounts
▁Check
▁Solve
▁massive
▁Under
▁semi
▁Christian
▁partial
▁em
▁prevalence
partial
Start
▁artery
Filter
▁assert
▁truth
▁considering
▁signaling
▁En
▁screening
▁conclusion
▁recognized
▁Division
Find
▁dis
▁posts
▁aircraft
▁Director
▁indicates
▁opposite
media
▁audience
▁Angeles
▁electrode
▁boy
▁jury
▁facts
▁Christmas
▁Korea
▁brief
▁iron
▁debut
▁originally
▁concerned
▁yes
Method
▁supposed
▁sit
▁Car
▁truly
yl
▁hardware
▁pH
▁writer
▁tour
▁override
▁Application
export
▁ordered
qq
▁doubt
▁facilities
ster
▁stopped
house
attr
▁candidates
▁Carolina
▁filled
▁sector
▁alleged
▁Se
▁surrounding
dy
▁approved
args
▁Jones
▁diagnostic
▁bed
▁ideal
▁axis
▁Virginia
ke
▁RNA
Options
▁CA
ada
Component
▁stores
▁division
▁regional
▁cable
▁blocks
▁William
▁crystal
bb
▁relief
▁explore
master
Version
▁fell
Un
▁wind
▁battle
▁flight
▁depth
▁efficacy
mode
▁Tom
▁mRNA
▁bigger
options
Oh
▁stars
▁Description
▁smooth
project
element
▁Award
▁kill
▁facility
▁Ben
▁conversion
fold
▁fashion
▁implemented
Bar
Status
▁sequences
▁scheme
▁accepted
▁Am
▁seemed
▁Business
▁fail
bi
▁los
Server
fn
▁IP
Label
▁entirely
hi
▁normally
uri
▁stimulation
▁Add
omega
▁extract
close
▁Lee
▁Good
▁les
tab
▁su
▁waste
der
▁bound
▁serving
▁nodes
▁amino
▁lots
section
During
▁deliver
IP
▁examine
▁compound
▁practices
▁Love
▁Name
▁dogs
Property
Thank
▁antibodies
▁granted
▁Per
▁apps
Style
▁smallest
▁diameter
▁union
▁neurons
ci
▁sun
▁fiber
Check
▁Federal
tt
hat
▁disorder
▁worse
Many
▁largely
▁forming
▁amounts
▁primarily
▁answers
▁excited
author
system
▁Will
▁yield
▁threat
only
update
La
▁chosen
▁Army
▁shop
▁antibody
▁branch
▁attribute
▁stages
▁Information
▁GNU
▁patent
▁contents
Mode
Line
▁registered
▁cutting
▁closely
▁university
▁Class
▁CEO
▁plurality
work
▁beam
pro
▁broken
▁Music
▁elected
▁hole
Web
▁logic
▁buildings
▁homes
▁seeking
▁holds
▁absolute
▁Paris
▁marked
▁technologies
▁recognition
▁flag
▁bag
▁correlated
▁Democrats
▁pop
▁variation
▁editor
▁secret
▁stem
sql
▁usage
▁watching
▁owners
▁thermal
▁carcinoma
▁sections
ite
▁Women
AP
Row
▁cap
std
Int
▁turns
▁depression
▁CO
▁stations
▁determination
▁acids
▁operate
▁statements
▁prison
▁religious
▁intensity
book
product
▁centre
▁den
icon
▁Summer
les
▁crisis
▁minister
▁theme
ring
▁chamber
ptr
▁implied
cal
ists
▁involves
▁Server
▁compliance
▁gate
▁Object
▁Power
push
cat
▁reliable
▁tasks
▁creation
▁vertical
▁Judge
▁bought
PS
▁experiences
▁baseline
▁vascular
▁solar
any
▁planned
▁Sea
▁surfaces
▁Three
▁Mike
▁committee
▁formula
▁schedule
▁limits
gt
non
▁CT
▁Development
▁debate
container
▁gap
▁leadership
▁config
▁proposal
Where
Me
▁vision
▁Second
▁rich
▁acts
Edit
git
▁roles
▁stroke
▁keys
font
century
▁windows
▁mounted
▁famous
UI
▁PHP
▁reviewed
▁targets
▁Like
our
ou
▁Show
▁milk
▁populations
▁nerve
▁pregnancy
▁beat
▁Well
▁corner
▁victim
▁tells
▁walking
▁suit
auto
▁Its
mathbf
mp
▁Year
▁Chief
▁happening
▁stack
▁Media
▁exit
▁Date
▁DC
▁wire
▁underwent
▁expert
pa
▁mix
Factory
▁colors
▁sharing
println
▁estate
▁illegal
▁equation
star
▁Peter
▁artists
xi
Go
▁smart
▁Italian
▁spectrum
ana
▁familiar
float
▁Men
▁indicating
▁basically
▁freedom
▁ha
GB
▁shell
ent
▁producing
▁Mo
▁monitor
called
▁mention
host
▁extend
ig
▁Are
▁Chris
dt
▁Pre
ial
▁reflect
Stream
▁programming
▁pulmonary
▁experts
▁Network
▁extensive
▁grade
▁updates
▁UI
▁expand
▁Thanks
now
Url
▁experiment
▁dependent
▁warning
▁picking
▁Note
▁hundred
method
▁Con
TV
Does
▁strains
▁consists
ker
▁capture
▁dollars
▁loading
▁reviews
▁complicated
▁standing
▁shares
▁admitted
▁complaint
▁cat
▁newly
▁scored
▁caught
▁Medical
▁scientific
ya
then
▁neck
▁col
▁End
▁oxide
▁soil
gl
▁meta
▁employee
▁scheduled
ja
▁authority
▁handling
▁seek
▁usual
don
▁adjacent
▁confirm
ver
▁regression
▁Instead
▁classic
▁yo
▁persons
▁responsibility
▁apparently
▁performing
▁Blue
Using
▁steel
▁reporting
▁Grand
▁aged
▁plot
▁involvement
Select
▁binary
▁respective
rate
▁aspect
▁studio
▁dangerous
▁permission
▁Program
ide
meta
lock
▁increasingly
▁arrest
▁consumer
▁trouble
History
▁spin
▁leg
▁Up
▁rear
▁presentation
make
▁desirable
▁render
▁Royal
▁rapidly
▁evening
▁salt
▁broad
▁absolutely
▁None
▁helpful
▁Scott
▁winter
ford
▁iPhone
rb
▁neither
▁boost
▁loved
tau
Point
entry
ger
menu
ised
Query
▁marriage
AD
▁voters
▁attempts
▁figures
▁Li
▁drivers
two
IN
▁orders
▁len
cs
▁practical
▁requirement
Length
▁ne
▁intra
▁conflict
▁impossible
▁token
▁Zealand
password
▁preparation
▁summary
▁maintained
▁arrived
Control
▁accused
ase
▁machines
word
His
low
bf
case
▁proliferation
▁Fox
▁aid
play
▁wireless
ium
child
▁closest
▁citizens
▁immediate
va
cdot
game
▁lived
▁fees
▁temperatures
▁fighting
▁infrastructure
location
▁lowest
▁hypothesis
▁estimate
▁BY
▁victory
ator
▁facing
▁weapons
tion
how
▁instructions
▁loaded
eta
▁mixture
▁alert
▁carrier
▁gift
▁Management
▁medicine
▁bodies
board
▁unsigned
Most
▁thickness
▁discloses
▁immuno
▁Boston
▁dropped
▁coffee
rho
▁IT
▁appreciated
▁hidden
▁calcium
▁bi
▁topic
▁sought
▁elevated
▁driven
▁wrt
▁Williams
▁infections
▁decade
ping
▁existence
Link
▁printing
▁AT
life
▁perspective
▁consumers
▁User
CO
vec
▁rotation
ina
▁cache
▁tab
▁markets
▁curve
▁copies
ru
ins
▁repeated
po
▁coronary
▁camp
▁assistance
▁aimed
Log
▁guilty
▁entitled
▁Di
jpg
▁laboratory
▁teaching
▁sitting
ft
▁bacteria
▁Python
▁bytes
ea
▁MS
▁edit
▁installation
▁diagnosed
▁acting
▁Valley
▁creates
▁Another
DIR
▁Force
ov
▁arms
▁Olympics
▁concluded
▁tables
bo
▁domestic
mathrm
xe
▁younger
ning
▁insert
▁wheel
split
▁trend
cl
▁owned
▁Joe
▁offset
mon
Resource
tree
▁understood
▁num
▁carrying
Location
▁regard
▁interests
▁debt
▁lock
IO
▁necessarily
Delta
▁apparent
▁fund
cast
▁guidelines
Next
▁Human
▁JSON
▁Finally
▁selling
▁warm
▁Patients
▁clock
▁appellant
▁telling
▁grant
▁petition
▁Richard
▁Ireland
▁restaurant
ella
▁Control
kin
Command
▁featured
▁markers
▁chart
▁provider
▁ongoing
ik
▁closer
▁Van
▁doctor
▁treatments
▁peace
▁raw
▁county
▁mine
▁Vi
store
▁totally
▁Among
▁obviously
▁bringing
▁metabolism
▁reactions
▁Ohio
▁welcome
▁conversation
column
Output
▁namespace
▁progression
each
▁island
▁inhibitor
▁victims
▁anywhere
▁returning
▁grid
Even
▁um
▁Secretary
▁op
Out
dis
▁willing
fs
▁strings
▁behaviour
▁boolean
▁execute
▁Republic
▁enhance
▁Bo
▁acquired
▁comfortable
▁developers
▁Prime
▁Top
▁politics
ities
▁grown
▁miss
▁pump
▁constructed
▁sending
▁millions
▁indeed
▁trees
Be
▁una
▁representation
▁prefer
ship
▁Championship
Range
▁noticed
▁creative
sa
display
▁Social
▁differentiation
▁apart
part
▁probability
▁mutations
Hi
Format
▁situations
▁partners
▁Additionally
win
▁justice
sim
▁intent
▁induction
▁mis
step
▁WARRANTIES
▁improving
▁industrial
▁architecture
Because
▁females
POST
▁favor
▁disc
▁moves
▁seasons
▁forget
CC
▁roll
▁transaction
▁Asia
mod
▁Republicans
▁sweet
▁cloud
▁segment
vector
▁sqrt
▁designs
▁intelligence
▁inflammatory
▁plenty
▁tip
▁permanent
▁Academy
cd
▁Type
▁frequent
▁kinase
Function
▁moderate
▁silver
▁Mary
ron
▁bond
▁ultimately
▁pathways
cap
▁valuable
PA
▁integration
▁engineering
Are
▁discharge
▁feels
rt
▁pure
Once
▁males
Default
▁si
leq
etc
▁PA
▁superior
▁tri
▁ride
iv
Sub
▁adverse
▁printed
▁Italy
▁cognitive
▁ion
▁evolution
▁assist
Box
▁greatly
▁east
▁spaces
▁predicted
▁participate
▁mouth
Window
▁te
▁Education
▁km
Search
▁obj
▁operated
mediated
▁graph
▁speaking
save
▁teacher
▁principal
▁Journal
Co
▁sister
common
▁legislation
▁python
▁activated
▁separated
mb
▁padding
▁coupled
▁transform
▁Michigan
▁receiver
▁labor
▁eating
▁bridge
▁faith
▁weak
▁murder
Like
TYPE
▁adds
▁essentially
▁communications
ene
▁ret
▁Francisco
tar
ho
▁electro
mat
▁missed
▁reserved
▁wonderful
▁threshold
Configuration
lan
ini
▁chip
▁substantially
▁west
ard
Application
▁fraction
rich
▁pilot
▁fly
cr
▁Spanish
▁Yes
▁viral
▁preferred
after
▁injured
▁founded
Width
▁throws
▁Museum
▁suspect
▁thank
▁functionality
▁trigger
▁View
▁corporate
▁intake
▁academic
▁targeted
▁Britain
Ref
background
▁boys
art
▁fifth
▁Dan
▁tracks
▁professor
application
nav
▁manually
replace
▁Auto
other
env
▁Charles
▁sizes
▁suffered
▁truck
pc
iz
▁sugar
▁earth
▁fellow
▁connections
Post
John
▁Image
weight
▁accident
berg
▁drawn
▁WITHOUT
PM
▁Real
▁wonder
CI
▁manual
▁consecutive
▁journey
▁spoke
era
ber
▁pointed
▁conclude
▁transferred
▁walls
▁draft
▁entity
▁probe
▁Fire
▁requested
▁permit
▁Ha
▁purchased
CA
▁albums
▁worst
▁measuring
air
▁afternoon
change
▁characteristic
mar
▁sp
▁cultural
▁Steve
▁permissions
▁prevention
▁emotional
▁imagine
▁worldwide
▁brings
▁minimal
▁losing
ls
▁mono
▁consequences
▁optimal
python
▁magazine
▁scan
▁Rock
ino
▁apoptosis
pass
▁fee
▁prepare
▁Asian
▁kidney
▁ver
▁NS
▁scientists
▁tournament
▁Today
▁opposition
▁Middle
▁contribution
▁Sam
▁Last
▁youth
▁listen
▁realize
km
▁differential
▁lo
▁cleaning
▁presidential
▁il
ney
week
▁separation
▁representative
▁elections
▁begins
▁agencies
▁categories
▁typename
▁Wall
SD
▁edition
▁declared
▁checked
▁somewhat
images
▁metabolic
▁wearing
when
▁regulatory
Mo
window
▁bug
▁taste
mg
dp
▁Northern
ah
▁byte
▁nearby
▁fairly
▁thoughts
▁flexible
▁inhibitors
▁submitted
▁dual
▁crucial
bottom
▁testimony
▁river
ile
▁dream
cy
▁ban
▁consideration
▁perfectly
lim
world
sys
▁significance
af
▁assets
double
▁enforcement
▁identical
▁thereof
▁pointer
CT
▁publication
▁matters
▁era
▁sport
ji
▁Out
btn
▁Radio
▁Apache
dict
▁worry
Cell
▁arranged
▁lies
javascript
Builder
language
▁enabled
parse
▁Lord
▁controlling
▁cup
▁proved
▁appointed
▁antigen
za
▁paying
▁nano
▁tips
▁Centre
▁hydrogen
tmp
▁actor
▁offense
▁cluster
▁tough
▁Community
Right
▁subsequently
Project
nbsp
▁Series
▁respiratory
▁comprehensive
▁serves
▁lists
▁talks
▁nm
IL
▁executed
▁faces
▁covers
▁composed
▁attend
▁revenue
msg
▁applying
profile
▁portions
▁kitchen
▁Kingdom
ens
▁es
▁Southern
par
Buffer
▁risks
▁Main
▁loan
▁drink
▁shouldn
▁yesterday
ung
▁Mc
▁Order
▁Jr
▁instances
cache
▁Young
▁movies
ze
▁bits
▁administered
Title
▁Korean
▁responded
▁determining
▁regardless
▁counts
▁Football
Product
fd
▁Who
▁args
▁reader
▁developer
▁json
▁AD
white
▁historical
▁institutions
▁Fe
▁Book
▁killing
▁crowd
pdf
▁kinds
▁Cal
▁fails
isation
▁turning
▁xmlns
▁transcription
▁smoking
buf
▁providers
ram
positive
NA
▁duty
boost
▁lipid
▁Does
card
▁migration
▁Old
▁promise
▁vice
▁Those
▁informed
including
▁Linux
ret
▁execution
▁desire
Ed
Provider
▁Table
▁shock
▁velocity
▁Jersey
join
▁anyway
▁trading
▁employment
▁Make
▁Special
▁saved
▁awarded
▁Global
▁urban
▁Find
▁pulled
▁submit
▁simultaneously
▁buying
▁diverse
▁escape
▁Water
Net
Module
▁marker
▁Model
▁meat
▁interior
▁pipe
▁pin
▁specify
high
▁db
xx
▁Si
▁approval
files
▁reveal
▁attempted
jar
vi
▁aims
▁decline
▁routine
▁Gold
▁Bi
▁relations
▁representing
▁incorporated
▁intermediate
twitter
ki
▁competitive
▁forth
▁MP
▁inflammation
▁Attorney
hour
address
▁Line
tor
▁jump
▁iOS
▁requiring
Na
ct
▁fundamental
▁appreciate
▁recognize
▁icon
▁burden
▁ad
▁statistical
▁Live
mean
▁Conference
Al
▁Technology
▁opposed
▁tank
▁gear
▁winner
▁resonance
▁doses
▁wine
DC
Show
▁proportion
▁professionals
▁exciting
Man
ura
sch
Column
▁Page
▁stands
▁Section
▁ch
big
▁privacy
▁inhibited
▁matching
token
▁resolve
▁southern
▁drawing
hand
▁von
▁improvements
▁Syria
▁mask
edit
▁polymer
▁council
▁vary
Over
▁basketball
▁mini
▁somewhere
what
▁extreme
▁periods
▁Studio
▁converted
▁attended
▁governing
▁NFL
licenses
▁Cu
None
ble
▁utility
▁personnel
▁surprise
buffer
Block
▁rural
▁pairs
MB
▁Ar
▁upcoming
Token
▁grew
▁commit
▁plugin
water
▁Despite
▁mail
▁peptide
dot
bind
API
▁arrangement
▁Library
▁WHERE
▁estimates
remove
▁destination
ez
▁collect
▁discovery
PP
▁Rule
▁Register
▁rounded
▁votes
▁layout
▁lateral
▁crew
▁substance
▁Play
▁parking
▁educational
▁Festival
▁differ
Hello
▁explanation
OK
▁teachers
▁shopping
▁timing
▁accordance
▁Appeals
▁bacterial
psi
▁hasn
ut
total
▁Results
▁wood
▁northern
was
▁banks
▁infected
room
▁earned
▁Pakistan
grid
library
▁believes
▁paint
Connection
Current
epsilon
▁automatic
cpp
▁strike
▁partially
▁addresses
sk
▁introduction
▁temporary
▁teeth
Cl
si
▁observations
device
MM
▁Jack
pl
Main
▁flash
▁st
▁cardiovascular
▁statistically
▁awesome
spec
El
category
Entity
▁giant
Header
▁je
▁constructor
rangle
Change
▁Georgia
Make
▁hate
▁symbol
docs
copy
▁taxes
▁FC
▁stuck
▁severity
▁stick
values
▁dates
▁BOOST
war
PC
Interface
▁suffering
Results
▁packages
ano
▁IV
▁Jackson
ata
EDIT
known
▁login
▁wherein
domain
dl
▁classified
▁hence
Windows
▁concerning
▁musical
▁investors
▁switching
▁priority
admin
▁postoperative
GET
▁Dec
▁closing
▁Ni
▁continuing
▁Sports
▁involve
such
▁Ma
▁syntax
▁till
ae
▁inspired
▁readers
▁yards
Call
cf
RE
ak
▁ruling
▁chemotherapy
▁produces
▁Photo
▁proud
▁references
FC
CH
▁exclusive
wrap
▁regulations
▁challenging
▁comprises
wing
temp
▁mutation
▁tape
support
▁drinking
▁Accordingly
▁Jesus
Document
▁advantages
▁broadcast
▁Create
▁True
▁episodes
real
▁Energy
LICENSE
▁sodium
▁removing
your
▁adopted
▁Lo
▁variations
▁calculate
▁dealing
▁statistics
▁Anti
▁commitment
ola
pp
▁newspaper
▁plain
▁instrument
▁Review
Users
▁YouTube
▁fired
▁healthcare
▁Design
hash
sort
Ca
▁advertising
try
▁Catholic
▁attributes
▁refused
▁jurisdiction
Up
rin
MP
▁tags
▁uptake
▁divide
▁heating
▁wondering
▁yellow
▁classification
Try
Local
Layout
▁gonna
conf
▁platforms
▁forum
▁Every
ON
▁registration
▁displays
▁cooling
▁Space
▁planet
▁Pa
Collect
ence
ny
▁passes
Task
▁herself
Store
▁dynamics
news
▁retail
Address
strong
▁seriously
▁crash
▁Corporation
Target
▁transformation
▁comprising
▁depend
▁completion
▁bike
▁hormone
▁beer
▁Beach
▁Ad
exe
▁shaft
▁atmosphere
▁scenario
▁pour
▁accessible
should
arr
▁cohort
▁gel
fe
▁Jewish
▁coupling
▁mapping
username
▁Spain
▁vessel
Session
▁fruit
▁Family
▁busy
▁payments
▁fewer
treated
Ct
▁presents
▁snow
mann
▁chose
▁Ryan
▁tea
graph
▁Pacific
▁guitar
second
▁conservative
Container
▁Assembly
Max
▁illness
▁engaged
▁Maybe
▁fed
types
jquery
▁Determine
ato
▁availability
▁friendly
▁realized
▁brown
▁signature
▁Next
▁Cross
methyl
▁assault
HR
▁broke
▁quantum
▁telephone
fill
▁Film
▁explains
TH
▁holiday
▁shut
▁Records
▁lawyer
▁radical
▁Louis
▁maps
internal
bool
▁knowing
▁knee
▁Care
▁proven
Tag
▁covering
▁spatial
Height
▁tight
screen
Collection
ue
▁encourage
▁dysfunction
▁pulse
usepackage
▁hurt
▁Santa
▁diversity
▁searching
▁systemic
final
▁western
▁organ
params
▁AP
binding
▁consent
▁farm
Photo
▁predict
▁Land
▁protective
▁herein
▁anxiety
▁expanded
▁Based
▁regularly
▁footballers
person
▁vast
▁exhibit
▁Er
▁Part
Dir
▁utilized
▁Night
▁Davis
▁func
del
▁tech
▁pan
AM
Position
random
▁heads
▁harm
▁poll
will
▁particle
▁houses
▁las
▁captured
▁Iraq
▁difficulty
▁facilitate
▁finds
▁Ka
▁Toronto
▁HD
▁computers
▁Four
vin
Core
▁Chi
HT
▁excess
▁dinner
▁Take
▁guest
▁Matt
▁UN
▁trained
▁cultures
law
ev
▁Core
▁anterior
▁prospective
▁Inter
▁hypertension
Write
▁absorption
session
▁uniform
▁producer
▁languages
GL
▁ok
▁keeps
▁streets
▁factory
▁choices
town
▁Jo
▁Bitcoin
layer
▁Pennsylvania
▁breaking
▁ser
Frame
▁Back
vo
▁effectiveness
▁connecting
▁Sen
ajax
▁tracking
IF
blog
▁quantitative
▁Non
ery
▁Kim
▁addressed
ck
▁hoping
▁sessions
▁Mi
▁jQuery
▁Ver
▁principle
▁magnitude
▁maintaining
▁emission
pr
▁Oct
▁Irish
United
▁guard
▁observation
▁promising
▁inserted
addr
ons
▁enzymes
▁entering
▁checking
▁gay
TO
▁Roman
▁SD
▁compact
▁narrow
▁alongside
making
▁violation
om
send
▁modification
tz
OH
TR
SO
Step
▁generating
who
▁unclear
handle
▁ticket
items
▁centers
▁cord
▁onset
▁seats
▁profiles
▁translation
▁campus
ek
▁adequate
offset
▁CPU
▁Jim
▁resin
before
▁formal
▁colour
▁Bio
du
▁unusual
▁dimensions
▁shipping
▁considerable
stop
▁Colorado
▁pack
▁marijuana
command
ita
▁SO
▁neighborhood
▁stone
ors
interface
▁rooms
▁Po
▁sa
▁exhibited
▁Daily
▁feeding
▁dance
associated
filename
▁wound
▁che
▁spokesman
▁Province
MAX
▁progressive
▁administrative
nes
▁rely
▁Local
▁specificity
▁holes
▁wedding
▁repeat
▁listing
▁ear
▁Town
▁supplied
▁temp
▁websites
▁ventricular
▁Illinois
empty
▁stronger
▁BE
Top
▁selective
▁hip
▁Little
▁Taylor
Val
▁bunch
▁OK
je
▁genome
xsl
▁THIS
▁ease
▁align
ds
▁grand
▁induce
▁mistake
▁USB
▁Brazil
▁faced
▁delayed
none
Three
▁RT
band
▁About
▁configured
▁JavaScript
prop
▁Bush
▁suggestions
bus
▁spinal
▁army
Email
▁introduce
cp
▁goods
▁deals
about
▁implications
▁hits
▁visitors
tech
▁cuts
modules
▁organized
▁principles
ological
▁featuring
have
▁boat
▁concrete
▁Source
ology
ap
▁somehow
▁mild
▁reportedly
▁CSS
▁barrier
▁bias
▁overcome
Dr
▁complexity
▁Coast
mark
▁declined
Listener
▁Da
▁pic
via
▁rel
▁propose
▁beauty
ef
▁randomized
▁engage
▁silicon
▁recommendations
Example
▁degradation
CF
▁childhood
just
ec
▁Bob
▁hash
▁processed
Today
▁topics
uint
ep
Attribute
most
process
▁compression
▁whenever
▁elderly
opt
▁bind
▁altered
note
▁PS
▁nervous
Str
▁awareness
▁Ko
▁immigration
▁entries
▁rating
▁servers
Year
▁taught
▁bright
▁doctors
▁Frank
ix
ula
▁orientation
▁ancient
▁slowly
▁combat
▁moments
▁foo
▁Ke
May
▁Muslim
▁XML
▁independently
▁Station
▁callback
yo
▁contributions
▁Tim
▁assistant
▁chat
users
▁Right
▁processor
▁det
▁Civil
▁Turkey
▁comfort
eg
yes
▁programme
▁BBC
▁provision
Script
▁Spring
debug
Sec
▁seed
▁skill
▁argued
▁Henry
hu
▁fatty
▁endothelial
▁trauma
▁drama
▁chest
▁edges
stage
wide
▁circle
▁SP
▁pixel
Reference
▁complexes
▁signing
▁validation
▁anymore
even
▁scanning
insert
▁Call
▁cerebral
wa
▁cholesterol
suv
▁horizontal
▁synthetic
ris
▁History
▁Kong
▁carefully
sky
▁comparing
▁infants
▁comparable
▁targeting
vis
ese
▁Master
▁bands
raw
▁Math
▁apartment
tel
▁hospitals
▁Christ
▁Ch
small
▁surprised
▁Light
▁environments
▁transmitted
▁politicians
▁monthly
▁merely
▁capabilities
▁ill
▁talent
Long
ERROR
▁FBI
ica
▁Children
▁toxicity
▁Related
▁roughly
▁EP
tri
RT
▁sensors
▁decreasing
speed
utf
▁hybrid
mid
eb
▁Before
▁inline
▁supporters
▁Text
▁modules
▁allegations
▁ourselves
▁accumulation
▁Ford
License
dc
▁Israeli
▁announcement
reg
iso
▁strange
▁statute
▁sat
Le
▁PCR
zo
▁fibers
ren
▁neural
END
▁tickets
▁Thank
▁Eastern
▁Watch
sha
▁reform
▁transparent
▁dating
▁courts
che
▁interference
▁province
Thread
▁Administration
▁strict
foot
▁coating
▁odd
▁commands
component
▁defects
▁crazy
▁argue
ctx
▁lib
▁rain
▁Arts
▁partnership
Total
▁qui
▁secretion
ical
▁Corp
▁ranging
▁losses
▁computing
▁reduces
▁Id
▁reaching
ette
▁Rev
Order
▁admission
▁garden
▁KIND
▁offensive
▁gained
sel
▁hide
▁pitch
▁vital
LY
Pre
▁bars
▁marks
▁tail
▁Action
AC
▁Tour
Level
▁parse
▁voted
▁rising
St
▁extraction
dom
pin
phase
▁coli
▁Andrew
▁Max
▁Miller
channel
▁beach
▁DB
ative
rc
▁Joseph
▁Ro
▁Policy
▁vaccine
▁Parliament
▁precise
▁og
▁circuits
oma
▁thick
▁participation
asp
▁export
▁libraries
under
▁finger
▁Error
▁clubs
ES
▁airport
▁Array
▁titles
king
▁preventing
▁dust
ln
▁allegedly
Back
▁compile
▁weapon
▁copper
▁har
Who
▁foundation
▁pushed
▁sorry
▁Win
▁Nov
Have
▁integral
▁Pi
▁Avenue
global
bound
▁affects
▁Navy
watch
▁Food
▁certificate
ios
ld
PD
▁Port
▁singer
▁accompanied
▁assumed
▁legs
▁transplantation
▁construct
▁prominent
illa
shaped
ang
submit
▁Rose
▁Where
▁dental
▁SOFTWARE
▁Run
▁som
▁heavily
Good
▁ignore
▁enjoyed
▁neuro
▁interpretation
IT
▁possession
DE
▁como
▁alive
login
▁vessels
DM
▁patch
▁collaboration
▁ending
▁twenty
▁courses
▁Point
instance
▁checks
also
▁tiny
Instance
▁historic
▁trace
▁Report
delete
▁weekly
▁hopes
▁coal
▁generic
▁medication
▁animation
▁roof
▁Du
▁joining
▁Ten
lu
ball
price
▁reliability
har
▁Ge
▁enables
▁papers
▁Arizona
▁cookies
▁Unfortunately
Pro
▁Houston
▁worker
▁compensation
degree
▁varying
ius
▁falling
ans
▁locally
▁Islamic
av
▁visited
▁occurrence
▁Daniel
▁DO
▁ages
▁tract
▁shoot
ani
▁entertainment
aa
▁Har
▁blocked
▁Plus
▁forest
▁om
▁guests
han
▁Round
party
▁constantly
lines
▁labels
▁scoring
▁powder
▁microscopy
Video
▁divisor
III
▁cited
▁Ms
▁Studies
ky
there
▁shorter
Cache
▁thousand
▁belt
▁reads
require
▁personally
risk
SIZE
Dialog
▁navigation
▁phones
▁passage
▁AC
▁bearing
anti
Build
made
▁damaged
▁Col
bc
mit
▁strip
▁failing
▁instruction
▁magic
▁printf
Big
▁Appellant
▁gastric
▁quantity
▁dimension
rest
▁Mon
▁Wilson
▁analyze
▁html
▁chapter
▁compiler
▁discover
task
▁disabled
▁alter
Both
▁combine
▁suicide
▁Analysis
▁epithelial
▁Sp
▁argues
▁consisting
▁honor
stone
▁careful
▁Minnesota
▁molecule
▁coast
▁IF
▁bulk
tools
▁treating
▁shots
▁soldiers
▁Columbia
▁Visual
▁guarantee
ati
▁acceptable
sup
▁kid
full
here
▁physiological
▁settlement
▁impressive
DF
▁pot
▁arterial
power
▁upgrade
Each
Load
▁contacts
▁keyboard
▁NA
ifndef
▁luck
▁lesion
▁fluorescence
comment
▁guidance
▁doors
▁myocardial
▁voting
▁applies
▁restricted
▁das
▁wake
▁pet
face
normal
▁protest
▁interact
▁closure
mL
▁reputation
▁Ministry
▁Standard
Despite
▁Number
▁smoke
▁prostate
fc
▁Images
linux
ding
▁Bell
▁transactions
▁coding
▁aside
▁regime
▁precision
▁surveillance
dr
▁spirit
Run
Fi
▁writers
▁influenced
▁rank
kar
Offset
Settings
SET
▁meetings
ski
▁jail
▁saving
nan
▁managing
Subject
▁equally
SQL
▁Base
Google
▁intracellular
ido
Day
▁identifying
▁beneficial
▁colleagues
▁innovative
▁eligible
stack
▁writes
▁np
En
▁randomly
she
▁Rights
▁boxes
▁undefined
axis
apply
blue
▁qualified
▁mountain
▁Head
▁unlikely
▁texture
▁chair
▁domains
▁adjusted
Home
Entry
▁Wood
▁lights
Tree
▁chicken
▁cream
▁rose
▁phenomenon
▁est
assert
cu
▁matched
▁transportation
ST
▁teach
▁suffer
Template
▁tolerance
ible
▁PD
shape
▁acquisition
ice
exp
▁demands
▁pregnant
▁Hong
▁household
▁Scotland
▁wins
▁electricity
▁expectations
▁handler
SP
▁defendants
▁occurring
while
▁cheap
▁movements
▁earn
▁cameras
flow
Left
Trump
▁verify
Free
▁compatible
hpp
▁fraud
▁Saudi
jo
▁Ser
▁refers
dist
▁Video
▁shoulder
▁computed
▁Jeff
▁Wales
▁engagement
▁weird
▁destroyed
itis
▁religion
ken
▁fabric
▁MA
▁waves
▁plates
▁adapted
▁contributed
▁communicate
▁plug
zip
border
▁Access
▁focusing
loop
▁preliminary
▁highlight
▁afford
▁officially
▁retired
Expand
▁nursing
▁rarely
▁macro
area
▁Int
cn
GO
▁defensive
▁recipe
▁lighting
▁lifetime
▁Eric
▁faculty
Microsoft
▁puts
iphone
cb
▁dress
▁contest
▁baseball
▁frequencies
toString
▁undergoing
▁mit
▁sampling
auth
▁placebo
▁rejected
▁hosted
trans
unit
▁buttons
▁hat
▁mutant
Items
tan
▁decimal
▁Age
▁suspension
▁alignment
pop
▁interviews
▁ingredients
ified
▁correction
▁separately
▁extending
round
▁suspected
▁folks
tin
▁Key
Part
▁governor
LC
ants
▁aggressive
ij
plugin
Activity
AF
▁trends
defined
▁paths
Access
Second
FILE
▁interventions
▁Agency
▁Fig
istic
▁scroll
▁implements
▁boot
Only
▁defect
▁supplies
▁panels
des
▁Premier
ably
video
Reader
localhost
▁tr
▁viewing
▁invasion
▁placement
▁naturally
▁graphics
▁Championships
▁tension
Omega
▁Study
▁disposed
▁directions
▁fusion
ico
▁studying
▁powers
▁vitamin
ami
▁lie
nie
▁repeatedly
ku
▁Store
▁sharp
▁reset
▁fi
▁ge
cmd
ros
▁desktop
they
derived
access
▁visiting
▁instruments
▁toxic
▁init
▁pad
▁engines
▁dominant
ViewController
Tab
▁specimens
▁troops
▁capability
▁finite
▁fake
▁sustained
selected
gate
▁kick
▁Th
▁Online
Her
▁currency
▁behalf
▁falls
▁isolation
▁sur
▁MRI
▁segments
▁extracted
▁varied
▁talked
connect
▁adjustment
▁Sir
care
IS
ida
▁mom
▁portable
▁healing
▁sand
inch
▁HTTP
CS
▁Prior
ext
PCR
▁bear
Under
▁serial
DS
▁commission
▁obesity
▁classical
▁recover
▁invited
▁gaming
▁festival
▁mod
▁slot
family
▁blank
▁volunteers
▁discrimination
▁profit
▁git
▁lymph
▁denominator
English
▁Have
▁integrity
▁robust
▁expertise
Every
tu
rightarrow
Star
▁kit
▁pe
▁resident
▁batch
▁Lu
▁til
▁emissions
▁manufacturer
▁fantastic
▁opinions
▁Rep
▁funny
▁arrays
▁med
vr
▁modes
▁affecting
▁ST
gs
▁landscape
▁ownership
▁Im
▁participated
eh
▁Ed
▁Log
▁reporter
FF
▁Micro
getElementById
PATH
JS
▁Greek
▁founder
▁adjust
▁explicitly
▁positioned
▁Queen
▁Form
cha
CV
▁subjected
▁Pan
▁operators
gg
▁Case
Port
share
▁chairman
▁suspended
activity
▁inclusion
▁grounds
▁tomorrow
▁listening
▁electrodes
▁lay
▁actors
ud
MD
Per
cut
▁mM
▁Ag
help
ow
▁posterior
▁sick
▁reflected
rem
vert
▁Professor
dx
▁Support
▁cheese
▁prediction
▁Saint
▁tied
ras
▁Massachusetts
terminal
characterization
▁Search
Share
▁laid
Enron
▁restore
▁scenes
▁potent
▁genus
▁designated
▁generator
▁emails
▁abnormal
▁Total
▁transistor
IR
Con
FROM
gb
▁hell
Sort
▁crimes
lar
▁solo
▁penalty
Host
good
▁cortex
▁Brian
▁Bowl
▁ABC
▁incredible
negative
▁Wisconsin
▁Yet
▁RE
ties
▁tone
▁await
▁equipped
▁investigations
UTF
▁temporal
▁harder
▁ce
▁institution
▁Alex
▁tens
▁malignant
▁reconstruction
▁struck
▁Prince
▁Sanders
Identifier
▁queue
▁filling
▁foods
Convert
▁Click
▁damages
▁witness
▁Va
▁Oregon
▁oxidative
▁vacuum
▁Awards
▁boundary
▁passion
cur
▁promotion
▁staining
▁routes
IV
▁politician
▁Area
▁raising
▁embedded
vs
▁weren
▁Plan
▁documented
▁hepatic
Menu
▁rail
▁intervals
▁recovered
ade
▁champion
▁Feb
▁meal
▁LED
IC
▁mirror
▁pseudo
▁struggle
▁zu
▁Hence
tra
Body
▁Due
▁restrictions
▁socket
▁Iowa
▁insight
▁compete
chain
▁simulation
▁Kevin
▁kernel
▁resolved
ran
▁reporters
ag
▁recurrence
World
▁Map
req
▁consistently
▁resistant
▁li
▁awards
▁retain
Take
▁derivatives
Json
▁viewed
▁fragment
▁hook
green
Yeah
Will
▁birds
▁attempting
▁breaks
▁painting
fr
ane
▁Work
▁inform
▁designer
▁donor
elle
▁clinic
Car
▁convenient
▁shortly
▁birthday
▁detecting
▁physician
Hey
▁efficiently
▁honest
une
▁decreases
▁pounds
▁deleted
Track
▁deficiency
▁optional
plus
▁Multi
▁eliminate
▁utilize
▁coefficient
▁Following
ot
▁eggs
▁upload
▁tries
▁bottle
ara
arch
▁ions
▁flying
▁horse
▁AI
ries
▁roots
yn
▁conviction
material
▁assays
▁codes
▁journal
HTML
▁bid
▁elsewhere
▁lawsuit
ure
▁fault
Work
▁Sha
fer
▁cavity
▁danger
stat
▁stretch
▁instant
pool
▁neutral
pur
▁walked
Further
▁cycles
▁Manager
▁attractive
▁YOU
ast
▁Ga
▁attachment
Num
▁squad
▁testified
▁flags
EC
BR
▁literally
phone
▁controversial
▁slide
Device
pad
▁Fed
nic
▁Miami
Gamma
▁everybody
▁Ki
lic
▁dismissed
attribute
FA
▁vi
▁bleeding
▁mitochondrial
▁Clinical
tle
▁Par
▁personality
security
▁stood
▁Major
RS
▁assign
Mar
▁Ltd
▁clinically
▁difficulties
▁Document
resource
▁psychological
FS
▁Dutch
▁Whether
▁abstract
▁pp
▁drives
▁PURPOSE
▁comedy
Close
▁mounting
▁logo
ach
▁Digital
▁retrieve
van
▁readily
▁Gar
▁styles
▁fetal
▁calendar
quad
▁uma
▁Ne
▁quiet
▁Fort
▁ruled
BL
▁pushing
▁membership
▁Still
▁Unless
▁Several
Widget
▁resection
BC
lam
▁urinary
▁mayor
▁nitrogen
▁Sa
▁PR
clear
▁publicly
▁Lewis
reference
▁adhesion
mic
▁Gen
▁variant
▁posting
▁storm
▁deposition
▁hosts
▁enemy
▁excessive
ws
▁secretary
▁Fund
▁Adam
▁Su
▁google
AB
▁invalid
mask
▁hockey
▁ads
▁reveals
controller
▁pace
▁Hollywood
Option
▁Oh
▁seal
▁trick
▁guns
▁artificial
wiki
▁disclosure
▁constitutional
▁kg
▁predetermined
▁golf
az
▁Te
▁emerging
done
▁violent
Root
CP
▁Nations
▁Bridge
▁diabetic
▁residues
Var
▁CS
▁UV
Best
▁maternal
▁distal
HOU
▁everywhere
▁brands
BE
▁loads
▁Chrome
▁Jean
Panel
custom
▁ma
▁lift
▁systematic
▁BC
gar
▁longitudinal
▁Diego
▁Trans
▁merge
▁cooking
Debug
mes
▁inches
minute
▁Cancer
▁quote
▁affinity
▁Disney
▁math
▁Mass
▁visits
▁Alabama
▁Instagram
Round
math
▁urine
▁restaurants
▁calculations
▁threats
sensitive
▁disability
▁dev
▁LA
uc
pkg
▁filing
▁muscles
▁championship
▁backup
Did
▁encountered
▁accurately
Async
▁behavioral
nn
tal
▁armed
▁promoting
aka
qui
▁contracts
▁PARTICULAR
aria
its
▁vulnerable
CONFIG
black
Put
Section
▁Historic
▁lets
▁MD
TEST
THE
DD
▁theoretical
▁railway
▁Ti
▁ink
▁preparing
tes
▁Mountain
▁clothes
▁USE
▁okay
console
▁connector
▁rescue
four
▁concepts
para
▁variants
▁Try
VERSION
▁watched
ib
▁perceived
▁secured
▁finance
▁Philadelphia
▁namely
Vector
▁Five
▁Indiana
DT
MC
▁survive
▁Executive
▁repository
▁shoes
▁ultimate
wan
▁contemporary
▁physicians
▁solved
Custom
▁packet
▁Guide
xc
JSON
▁promoted
▁arrive
equal
kind
▁charging
▁intact
▁oxidation
Finally
ser
▁ordinary
▁widespread
Auto
▁FITNESS
▁Sky
ks
Directory
▁isolates
▁pas
▁Tri
▁Poland
▁Kelly
dump
▁proceed
lor
▁recall
▁graduate
▁Hotel
▁Latin
▁Down
Writer
▁races
fl
amino
▁Seattle
ria
▁intense
schema
▁foreach
lon
▁forever
▁hypo
▁Ray
▁NY
tive
▁ultra
▁Aug
▁Ontario
▁defeat
▁collagen
▁universe
▁Airport
ju
▁satellite
containing
▁associations
ando
nil
ston
▁presenting
Callback
▁Market
▁Nick
▁Governor
▁filters
▁mining
▁threads
place
▁sad
▁graft
▁Dar
three
phy
▁pen
▁inhibitory
▁belief
track
▁investigating
▁Vol
▁Jordan
▁explicit
▁diffusion
score
▁offices
execute
▁Stone
Adapter
Parameter
Police
▁manufacturers
ena
MA
▁assignment
▁rubber
Notes
▁suddenly
▁permitted
▁satisfaction
Grid
▁peri
▁frames
▁Should
▁ultrasound
▁biopsy
▁somebody
Pa
▁biochemical
▁Syrian
hidden
▁convicted
▁cultured
▁cervical
▁Hot
▁tie
▁Cloud
ace
▁phosphorylation
National
bio
fb
▁warranty
NC
▁amplitude
▁cylinder
▁MERCHANTABILITY
▁ratios
Obj
live
▁Place
▁Mexican
typename
▁injected
ante
▁steam
▁BUT
▁SC
RF
ification
▁defend
▁Phys
quality
▁Ja
▁territory
▁accomplished
▁antenna
▁demo
▁rid
▁lifestyle
▁odds
▁Medicine
▁prevented
▁intensive
▁ships
▁restriction
PR
▁thrown
▁ALL
bytes
▁Las
▁spots
▁dietary
wave
▁initiative
▁tradition
▁operational
gi
▁boss
▁evil
▁Ukraine
hard
Price
▁wet
▁investigators
▁wing
▁Stephen
▁confused
KEY
▁managers
▁catalyst
props
ement
gr
▁pos
▁promoter
▁Kansas
▁df
▁Index
▁Sydney
ToString
bed
▁chromatography
member
ME
▁rice
fields
▁publish
▁governments
▁clip
▁Berlin
▁franchise
Child
▁emerged
▁tomography
exec
▁Square
react
▁Wi
▁invasive
Properties
▁concert
gel
ale
▁clearance
▁confident
▁flexibility
Unit
▁CNN
▁aging
utils
release
sample
▁speaker
▁plea
▁algorithms
▁residual
grade
▁sheets
▁opens
ele
▁observe
General
UPDATE
▁warned
EN
▁nucleus
UN
▁bonus
CL
▁athletes
Impl
▁residence
▁lunch
▁satisfied
widget
▁Treatment
▁everyday
because
▁Task
▁chances
▁soul
▁heading
Record
hello
▁coil
ari
▁spectra
PER
▁alt
oid
▁impairment
AA
Display
city
NP
▁intestinal
▁Way
▁eastern
▁Moore
▁Winter
▁fa
▁discussions
sis
▁arts
▁supra
Red
▁impaired
▁alterations
▁Allen
Helper
▁relating
▁asthma
▁bass
▁Golden
▁retirement
▁pa
▁calculation
▁membranes
▁Week
▁Defense
ob
▁affordable
edge
▁referring
▁exclusively
▁colon
yan
▁residential
resistant
▁Soviet
▁disable
SE
▁pipeline
Bundle
▁fitness
wise
▁automated
▁outdoor
▁Full
▁accomplish
▁Ali
▁Manchester
▁celebrate
▁Trust
▁continuously
die
▁SE
▁editing
▁predictive
ware
▁Overall
▁receives
▁highlights
▁sizeof
▁clicking
Case
▁Labour
Save
▁Officer
▁Tony
▁innovation
▁PDF
▁basal
▁passengers
▁egg
▁infusion
▁Camp
▁drag
▁gradient
▁Euro
▁utilizing
ising
▁unlike
ika
rows
Enter
▁locked
▁sky
▁CONDITIONS
▁situ
▁anybody
prime
circ
Password
ona
arm
csv
▁mixing
▁Value
▁thinks
▁volumes
transform
▁Die
▁dependence
▁queries
▁Anderson
hal
▁imposed
▁protocols
▁cursor
▁Heart
bot
▁declare
▁holder
Related
▁dollar
▁differently
angular
▁radius
▁census
▁breath
▁Price
ations
zi
ward
abc
register
▁subset
▁blockchain
▁vocals
▁Ex
iter
▁attributed
ett
▁Ph
▁intention
▁appearances
Char
▁Far
▁feelings
▁inhibit
matrix
▁analog
▁appeals
▁inputs
▁mood
▁establishment
▁appointment
▁questionnaire
Handle
▁nations
med
▁Defendant
▁moral
▁curves
▁sixth
mysql
▁bundle
Icon
Am
fp
▁reply
idae
▁Has
team
keys
Based
apple
▁abdominal
▁OUT
▁rod
linked
▁hosting
▁javascript
render
ero
▁limitation
Func
▁abnormalities
▁proceedings
▁Given
cher
drop
▁authentication
▁invest
▁Though
▁floating
▁wider
nar
yard
▁flowers
▁mi
▁Country
▁packaging
▁steady
▁mature
UP
langle
▁outstanding
▁Invention
▁blocking
▁sole
▁deeply
▁interactive
▁wrap
Folder
▁memories
Process
▁Foreign
ever
▁regulated
▁roads
▁needle
▁BASIS
▁Miss
GA
BP
▁GOP
edu
Mark
▁Harris
install
▁handled
▁substrates
▁criticism
AT
▁Amendment
impl
Maybe
▁catheter
PL
▁prop
microsoft
plot
▁racing
▁complaints
▁custody
▁adventure
▁discretion
five
▁consisted
▁participating
used
▁Vice
gas
amine
▁agenda
ready
▁afraid
▁threatened
▁clothing
oc
pack
▁physically
▁universal
▁extracellular
su
▁Edward
▁Sweden
▁fracture
▁regex
▁king
▁entrance
Ex
dar
▁excluded
▁vein
▁streaming
zero
▁employer
▁consequence
▁containers
▁worried
▁Region
▁mediated
▁pocket
▁aluminum
▁dad
▁Low
▁Battle
▁combinations
▁Cell
mem
▁dialog
ging
CN
▁wealth
▁Senior
▁neuronal
▁ocean
▁captain
▁passenger
▁gotten
▁provisions
▁username
▁nose
▁firms
ious
▁angular
▁obtaining
player
▁circular
▁Band
loc
▁blame
▁persistent
tilde
▁choosing
▁tap
▁liked
▁struggling
▁Olympic
Values
▁Hillary
▁poorly
▁distribute
▁aqueous
ric
▁Dis
pet
▁dans
zer
▁enhancement
▁destruction
ban
▁insertion
front
▁WITH
▁Mrs
▁thyroid
Black
▁HR
▁marine
▁NBA
▁deck
sized
▁Mayor
had
▁Card
bat
▁Blood
▁Publication
▁Unit
▁modulation
▁strategic
▁peer
gov
▁savings
▁Engineering
thread
▁Dave
▁phrase
▁debug
▁inspiration
record
▁downtown
settings
▁Afghanistan
▁Start
▁craft
▁prognosis
▁peptides
▁compiled
Has
▁blow
▁Final
▁combustion
Win
▁po
through
Evaluate
▁replacing
▁Mobile
▁blade
▁slight
▁Silver
▁retrospective
▁performances
▁rough
▁rent
ax
▁Dallas
sync
▁comic
sectional
gan
short
platform
News
▁lab
▁chocolate
tro
exports
ops
▁Maryland
▁Plaintiff
▁Color
▁coordinates
np
▁transit
▁nurses
Non
▁CC
wp
▁destroy
▁EC
Queue
dan
▁JS
▁chromosome
XML
Media
bank
▁Ann
▁collapse
force
analysis
▁pm
enable
▁Update
▁une
▁tonight
▁meters
▁arrival
▁constraints
▁Singapore
▁headed
article
▁bills
▁indication
▁implies
cloud
Se
▁glad
▁bags
▁employ
▁farmers
High
Integer
▁entities
▁equations
Pos
geq
▁Change
▁answered
▁pixels
▁sufficiently
▁Ken
▁aortic
Those
Details
zone
▁SA
▁Intel
▁Child
▁hitting
▁functioning
▁mysql
▁dont
▁PI
LE
▁rolling
▁sc
mini
Tex
▁complement
▁Harry
▁yields
▁claiming
Following
Meanwhile
▁trailer
▁operates
▁recombinant
connection
▁Story
CM
▁clause
MR
▁Through
▁carriers
Release
▁Fair
▁sees
▁perception
Contact
Expression
Col
HD
▁attacked
▁variability
▁Missouri
▁Netherlands
prefix
▁fishing
▁indicator
▁NC
▁Ubuntu
▁expenses
▁Del
▁Constitution
ulation
▁Stadium
ped
▁bladder
▁Six
ste
chan
▁flows
▁generates
LIB
▁ignored
▁focuses
▁proxy
Delete
▁Ya
cost
kan
sun
▁protecting
Abstract
Database
▁acoustic
▁implementing
▁behaviors
▁liability
DATA
▁Detroit
ich
▁deeper
Ha
▁Small
▁manufacture
▁Alexander
OP
ima
▁phenotype
▁ET
Param
multi
▁encouraged
TD
▁vectors
▁sys
▁actively
▁unexpected
Game
▁ranked
Men
▁orange
▁Atlanta
MT
▁Victoria
▁bold
▁arbitrary
▁Ho
DR
▁pancreatic
▁cannabis
▁advances
unsigned
lab
▁traveling
▁sight
▁Creek
▁Indeed
▁demonstrates
Space
▁typedef
▁tall
▁fo
dll
▁hall
▁leaf
▁expressions
▁marrow
▁seeds
AL
▁precisely
▁enrolled
▁Capital
▁exhaust
ectomy
▁params
mac
▁IC
▁loose
depth
▁burn
▁Without
▁phases
nal
▁Put
his
▁stops
▁Ross
▁prolonged
▁trail
osis
▁engineer
▁bypass
▁projection
▁spectroscopy
▁ja
▁Elizabeth
facebook
san
ista
nick
testing
Layer
eth
windows
results
▁Wars
▁Sept
▁mobility
▁Mel
▁museum
DA
HTTP
▁substances
▁async
▁licensed
▁msg
▁Drive
▁canvas
▁landing
▁Ball
▁transient
fire
say
▁characterize
▁modeling
▁meaningful
▁solely
▁Credit
▁reserve
▁torque
▁Express
▁TABLE
SS
▁Atlantic
Si
quot
▁ml
hide
bad
Four
ose
desc
▁abortion
▁accommodate
▁describing
▁incredibly
oon
▁illustrated
▁Ram
▁purified
▁firing
▁Hi
▁mount
▁dictionary
▁pathogenesis
Utils
ben
being
PE
▁dramatic
▁asks
diff
▁branches
oh
VM
▁attitude
▁Val
ito
ups
▁attending
▁jet
cpu
▁Systems
▁notification
properties
stock
▁retention
▁engaging
▁spectral
▁sperm
▁releases
pan
▁pending
▁grab
shi
▁opt
▁regulate
oo
▁stayed
lat
shell
friendly
ML
▁suppression
FM
▁Dark
ions
▁Cha
Selected
boot
▁Delhi
▁Ocean
▁ca
▁Channel
▁pursuant
▁defence
▁solvent
▁terrorist
osa
▁chains
mus
zu
▁yeast
▁Short
Stack
fetch
▁spec
▁insights
nm
▁pediatric
▁Forest
▁synthesized
▁suppose
PI
▁Bureau
▁cats
AR
▁immunity
Html
vm
pattern
▁mothers
▁virtually
South
sex
Program
▁developmental
▁asset
account
springframework
▁Command
▁rally
▁DVD
INT
▁rendered
▁defeated
▁bowl
▁INTO
flags
HS
▁ratings
logo
▁portal
Fe
▁pr
▁poverty
bl
▁tweet
CG
▁Moscow
HA
▁Tennessee
▁safely
BA
▁lake
SU
▁organs
▁Patrick
▁ethanol
once
▁lucky
▁detector
▁sender
▁cancers
prototype
▁suggestion
Given
▁gl
▁cu
season
▁Bad
▁reflection
▁bandwidth
▁disaster
rie
▁compute
▁reactive
▁Exchange
Spec
▁promised
▁premium
▁facial
square
West
PO
tv
▁conductive
▁emphasis
▁bench
▁logical
▁Edition
▁guaranteed
▁Moon
▁laptop
▁Cat
▁evident
▁gradually
▁pointing
▁veteran
Ch
Pointer
variable
▁ho
▁NF
▁bonds
▁gamma
▁ligand
Parameters
▁ceremony
▁partition
▁geometry
▁configure
▁therapies
▁minimize
▁hired
▁wheels
▁chips
▁bilateral
▁similarly
▁Content
▁blind
▁Cook
▁databases
▁ou
Full
▁headers
▁defining
mate
▁variance
Background
▁abilities
▁translate
▁Han
▁competing
▁bird
OF
▁placing
▁riding
Book
Editor
meter
extern
inner
▁JOIN
detail
▁Site
▁protests
▁anniversary
Parser
Binding
▁tele
▁monitored
▁encounter
▁hang
▁Similarly
David
mas
tex
very
Font
EE
▁runtime
▁append
▁validate
▁industries
ory
▁MR
radio
▁chemicals
▁lawyers
▁Scottish
bu
ua
▁Cor
fast
▁deployed
▁implant
ids
something
Texture
od
panel
▁triple
school
queue
▁reversed
▁drain
since
▁dismiss
▁enum
mc
▁iPad
▁rendering
Min
ei
▁wafer
linear
Rect
▁CF
ALL
ify
RR
▁Com
▁confirmation
▁storing
▁DE
▁validity
▁encoded
▁ports
rule
jan
▁consensus
gu
▁coaches
▁defines
database
▁Ku
una
▁fiscal
ira
▁IE
▁Message
▁react
▁doc
move
▁relate
Types
▁journalist
▁dispute
Li
▁quotes
▁Affairs
than
mos
▁morbidity
nik
DNA
▁Empire
San
▁localization
gy
▁Austin
Bytes
Members
▁insufficient
gmail
▁replication
sign
▁adaptation
▁Future
▁junction
Repository
▁Mal
▁footage
▁Product
▁LICENSE
Should
▁carries
▁Scale
▁dataset
▁admit
ography
Global
▁hepatitis
▁tends
▁modifications
▁SELECT
▁tobacco
▁screw
▁fragments
required
▁Pen
▁arg
▁biology
▁Rs
▁robot
▁pleased
mente
▁boards
▁HP
▁Room
Watch
fu
schemas
▁Sar
▁spontaneous
▁flavor
bg
▁sudden
lay
▁Egypt
▁contrary
▁districts
▁cooperation
▁preference
▁sin
▁Article
libs
Network
Look
▁winners
▁assumption
▁pollution
▁loves
USER
▁warrant
▁outlet
▁gathered
▁compositions
ral
pic
uff
▁wavelength
▁Dead
▁vacation
ong
▁platelet
▁indices
▁momentum
▁expanding
▁Jason
▁Arab
msgid
▁recurrent
dose
paper
artifactId
▁printer
ned
▁spray
▁mess
eu
▁soccer
iii
children
Double
Files
▁Vegas
▁settled
▁incorrect
▁symbols
Factor
▁qu
▁Samsung
▁convenience
▁skip
▁FA
SC
Account
Operation
▁Simon
▁pursue
▁arr
▁Third
▁Twenty
▁actress
▁alumni
▁Building
▁acquire
▁lovely
▁flex
GS
▁Node
▁searched
▁Ab
▁clusters
▁GM
▁preserve
▁associate
tus
▁Did
super
Life
GC
country
▁satisfy
BS
Instead
▁cake
▁occasion
hold
ala
▁salary
▁minority
standard
models
▁contributing
▁Trade
TS
▁likelihood
▁span
▁moon
Match
▁nobody
▁singles
ye
inc
▁ranges
▁redirect
Rule
ome
▁loans
▁backing
▁batteries
groupId
▁tackle
▁Again
▁tower
▁xml
▁documentary
▁immigrants
stylesheet
EF
train
▁prize
▁Returns
rel
▁remarkable
▁Integer
FP
▁morphology
▁Che
▁convention
gnu
profit
▁dielectric
▁stomach
Python
inflammatory
▁unnecessary
aws
▁stolen
shared
▁Gas
fish
▁Ber
▁Walker
▁prognostic
job
radius
ets
▁cam
mol
▁traits
Come
▁frozen
cent
▁pleasure
▁Oklahoma
▁explored
▁smartphone
take
ments
tis
▁belong
▁Was
▁mold
operative
CE
▁mar
▁terrible
▁manufactured
Util
▁Turkish
▁Smart
▁DM
▁breakfast
▁Sometimes
▁junior
▁Maria
▁Anthony
▁LLC
▁enterprise
INFO
Http
▁ensuring
▁paste
▁legacy
▁titled
▁desk
report
▁optimization
▁terminals
topic
▁MB
▁opponent
▁initiated
▁Double
ington
micro
▁lymphocytes
▁dozen
▁React
▁households
▁reflects
▁furniture
▁Tu
▁Khan
▁CH
▁Ham
PG
bn
mis
▁CP
▁ovarian
▁Swedish
▁reaches
▁fluorescent
mont
NULL
los
▁medal
▁selecting
half
▁macrophages
cv
▁fits
Changed
▁auf
▁belongs
▁throwing
▁decent
Ad
Ptr
▁retained
names
▁roller
▁Sciences
margin
counter
▁rotating
▁Natural
▁sequencing
▁bread
rus
▁adhesive
▁balls
▁expressing
▁Places
Route
▁Bible
▁sentenced
▁lying
▁Current
▁Galaxy
▁Tech
▁staying
▁speakers
▁miR
limit
▁coefficients
▁collective
▁Route
▁hire
▁Phil
▁labeled
typedef
▁metastasis
ire
▁gather
▁finishing
▁recipient
▁producers
▁shadow
▁declaration
▁Jay
▁triggered
inter
ien
xsd
▁notable
▁GL
▁begun
▁seeks
Screen
▁infant
▁TNF
▁favorable
▁theorem
bd
▁Clark
▁scales
avi
▁nu
RA
▁phosphate
▁Function
cor
▁impression
▁Rob
▁limiting
Scale
▁prevents
▁mo
▁ties
Final
izer
▁brothers
hydroxy
▁Look
▁sustainable
▁joy
▁venue
SA
fit
▁cookie
▁speeds
▁surrounded
▁absent
Ma
▁smile
Cast
tif
▁burning
▁fetch
▁shapes
▁donors
▁packed
hover
▁vol
▁localized
▁cook
▁RF
Paul
▁Op
▁possess
Player
▁Computer
▁liberal
mel
▁positively
comp
▁ms
zen
▁god
▁objectives
▁activists
repeat
▁Player
▁expense
▁quit
▁atoms
▁Mother
▁surprising
▁meets
▁proximal
ub
packages
equiv
▁nurse
dos
nom
▁Para
▁AR
ET
▁fingers
PT
Unfortunately
▁butter
▁IgG
▁timely
success
services
▁ATP
▁mesh
Public
Remove
inline
▁possibilities
lg
resources
▁Cruz
▁Theatre
▁Democrat
▁Morgan
tur
shift
EP
▁rape
present
White
▁coordinate
fo
sey
▁sync
▁prefix
Package
tags
▁favourite
▁cancel
Library
Express
▁elevation
▁importantly
▁withdrawal
▁MySQL
▁Der
human
BB
▁Utah
▁Figure
late
▁Organization
bridge
spring
▁gray
▁analysed
▁publications
▁brake
▁dem
act
▁delivering
Job
▁leukemia
▁RA
▁Hy
▁barriers
▁flux
▁highlighted
dim
role
▁crypto
▁Pu
Mac
entity
▁roster
engine
▁shit
varphi
▁ein
▁susceptibility
▁adoption
▁nanoparticles
▁LC
Career
▁funded
▁Member
▁NASA
▁Early
▁Kentucky
▁Box
Android
▁Off
ven
▁Specifically
▁swimming
▁viruses
MO
▁Mount
▁deputy
▁Bur
▁activate
▁accordingly
▁wage
▁inspection
▁beliefs
▁Factor
▁racial
draw
▁nicht
▁fever
▁Tax
FE
vc
▁och
▁tutorial
▁conservation
▁Boy
Security
▁exp
▁Editor
▁displacement
▁arise
▁Singh
▁fiction
▁spell
▁WARRANTY
▁tablet
▁fought
▁expecting
▁wanting
amide
▁Licensed
▁partly
▁Title
▁CHECK
▁Duke
▁journalists
▁Ba
▁tear
both
▁MC
▁enabling
▁individually
ere
▁prompt
▁circulation
▁Safety
▁reception
▁deployment
▁tumour
SB
▁establishing
gdp
ska
ifdef
▁appearing
▁Protection
ora
▁endogenous
▁stimuli
lee
LT
generated
Ni
▁Common
▁drum
▁recipients
▁Mean
▁gross
▁Labor
▁duties
IE
▁buried
▁Metro
contact
Storage
iness
▁plaintiffs
Thus
▁downloaded
▁atomic
HOME
met
ados
dal
▁stupid
▁Lady
▁Islands
▁witnesses
▁lessons
controlled
▁grain
network
▁brush
without
▁evaluating
court
▁reward
nba
▁representatives
▁couples
Lock
▁specialized
rum
▁positioning
▁achieving
▁popularity
▁transformed
▁regarded
▁Howard
▁antibiotics
▁whilst
▁Tag
▁mile
▁ministry
▁opponents
▁Season
▁Jon
overline
▁Garden
▁resist
handler
Center
ela
▁corn
Though
▁pink
▁universities
▁sanctions
away
▁maximal
▁heated
▁collecting
▁gains
iya
Therefore
▁schema
▁horror
Pi
manager
▁Sony
▁mais
lum
▁generations
▁impacts
▁Gu
▁rings
press
CREATE
▁Property
▁physics
Msg
Multi
▁tunnel
▁restored
Delegate
▁Iranian
▁hardly
▁Grant
lie
▁Survey
▁quoted
▁Database
▁Language
▁displaying
▁considerably
▁ranged
▁Jews
CB
▁Regional
sc
▁Nos
Report
INSERT
▁alternate
▁NBC
▁HA
Card
▁collections
▁bathroom
▁descending
plane
▁leak
▁deficit
▁graduated
driver
SR
hole
▁Highway
City
arrow
▁Ron
abs
▁figured
▁photographs
modal
▁denial
President
▁tweeted
Super
▁Assistant
wait
▁Ste
▁curious
▁Cambridge
▁situated
▁fitting
▁establishments
cross
Join
▁tired
▁sauce
▁ME
▁publishing
▁nested
Enabled
▁Perhaps
▁striking
▁letting
ldots
▁respondents
▁Brexit
▁pressed
Parent
rk
▁Ban
hl
▁abundance
▁GC
Api
annotation
dependency
ique
▁authorized
▁Beijing
iterator
rat
sson
Lo
▁Include
▁uncertainty
▁lacking
▁powered
▁stimulus
▁Native
▁simulations
varepsilon
▁comprised
Login
▁backed
▁conjunction
▁influences
west
▁occasionally
▁adopt
▁MO
▁photography
▁Islam
▁Bal
▁adolescents
rock
▁edited
▁silent
▁flip
▁Tokyo
▁medications
▁timer
▁viable
sta
▁deviation
Ra
▁graphic
▁Yu
FD
▁confusion
▁undergo
▁announce
▁bedroom
▁ischemia
▁preferably
NT
▁constitute
▁Authority
▁conducting
▁addressing
▁boundaries
▁productivity
▁pulling
▁hopefully
svg
▁attract
SH
▁Dim
exit
▁Email
▁cortical
▁Mars
stein
▁venous
▁filename
▁independence
Hash
ali
▁angry
Follow
▁spine
▁Wild
pel
▁cocaine
▁reg
lich
▁diagram
▁mainstream
wi
▁bath
poly
▁negotiations
▁Financial
Engine
LINE
▁abandoned
Support
▁departure
Welcome
▁towns
▁Select
▁rounds
▁judges
▁spoken
iel
fix
Ro
▁bomb
▁transplant
▁viewers
▁intellectual
▁intravenous
▁drove
▁dependencies
▁LIABILITY
▁infarction
loader
▁pressing
▁rotor
▁startup
▁fractures
▁corresponds
Common
▁Range
▁Collection
▁corruption
focus
▁banned
route
▁overflow
ava
▁anchor
▁necrosis
framework
dia
▁Sound
▁Us
▁cytokines
DP
▁notion
TB
▁Melbourne
▁arc
▁briefly
▁dramatically
burn
▁cmd
▁lawmakers
▁tooth
▁stimulated
▁LIMITED
ux
▁Antonio
▁hanging
▁False
gun
Java
SM
pk
▁Oracle
▁tubes
▁utilization
gal
▁deny
▁combining
▁citizen
winning
▁chemistry
▁Method
▁philosophy
▁allocated
Ka
dale
▁Keep
pid
▁Training
▁specification
▁Student
▁admin
Still
▁arrangements
▁existed
eight
▁psychiatric
angle
best
▁gauge
▁organisation
events
ute
▁methodology
▁vocal
▁Bre
▁Later
▁Continue
▁sends
dynamic
▁clone
▁limb
pub
▁stating
AND
▁permits
▁advised
▁swing
▁cabinet
▁tendency
▁incidents
Copy
▁contacted
▁vapor
▁democracy
Active
▁Warren
ug
▁controversy
▁opera
▁slower
Ga
▁av
tie
archive
▁oven
▁crop
▁fatal
seq
▁delicious
Real
yr
▁sh
SF
▁Muslims
▁adapt
North
▁hero
DO
▁downstream
▁AN
allow
wall
▁intersection
▁deposit
Lambda
▁foam
Stop
▁shops
VC
▁dreams
east
▁gut
▁extracts
Site
▁Nothing
▁survived
▁therein
▁ES
▁passive
▁hub
TAG
▁bin
▁gallery
▁Console
▁Event
▁fitted
▁grass
driven
▁cute
▁Sarah
▁Les
people
▁DA
▁req
▁Consequently
▁grey
▁optimized
▁Currently
▁likes
Association
▁Nu
▁Min
operatorname
Vi
socket
Xml
▁Es
▁attach
SL
mine
▁Hu
▁Sri
Sa
▁Entertainment
▁explaining
▁gang
▁Kan
▁MT
▁deemed
▁accounting
gle
▁pole
Light
oli
March
▁LP
▁installing
▁legislative
▁Francis
Params
Channel
▁rehabilitation
▁narrative
download
din
Schema
▁Left
points
▁luxury
▁drops
kw
▁Oxford
▁antibiotic
▁logging
▁agricultural
▁Help
ensis
HP
▁GB
Member
▁ob
▁exhibition
rot
▁polymerase
▁NHL
▁mistakes
ates
Plugin
▁induces
Profile
▁Greece
▁dynamically
▁exploration
mobile
▁sensing
▁promises
zy
▁Marine
▁themes
ches
▁spiritual
▁agreements
eur
▁critics
Len
simple
▁lamp
▁substitute
night
▁charts
▁CBS
▁converting
▁IMPLIED
▁metals
▁dense
▁Hamilton
▁competed
▁Custom
▁anonymous
▁precedent
native
created
toggle
▁dish
Comment
HC
▁coalition
▁fatigue
tests
gra
▁Had
▁FM
▁certified
▁campaigns
many
▁Rick
▁varies
▁stadium
▁cyclic
sur
▁deploy
▁indirect
▁releasing
macd
▁piano
trace
▁oldest
▁bases
▁focal
▁developments
▁overnight
cup
▁Pe
▁hydro
▁occasions
▁switches
mal
TA
▁verdict
▁subscription
▁scripts
Op
qu
▁lady
▁Reuters
▁SF
▁Magic
Download
▁eliminated
Phi
▁transmit
▁Magazine
xy
▁animated
▁terror
▁infinite
Sample
▁Vietnam
▁enemies
Proxy
protein
▁upset
▁interfaces
▁crack
living
genic
eng
▁COURT
proc
break
▁Bishop
▁breathing
LA
▁inventory
▁outputs
▁Memorial
▁Pop
lm
▁dialogue
▁rational
▁pose
▁rep
bm
▁Mini
▁cur
mile
collection
▁streams
Lib
▁Mat
▁antigens
Send
▁performs
▁rotate
six
Simple
▁acceptance
ori
▁Senator
▁barely
▁Os
▁Self
Di
els
▁smell
▁sql
▁cure
▁Dream
▁stopping
▁scenarios
NE
▁Rome
stra
▁genuine
▁knife
▁Level
fx
expression
▁organisms
▁Net
lf
▁preview
▁discount
▁Captain
▁abroad
Green
ration
▁VR
▁susceptible
pen
▁switched
▁interpreted
▁obstruction
ruby
▁Gene
Bo
▁crossing
▁alarm
▁conspiracy
▁locking
Matrix
look
ogenic
▁Hard
▁amongst
▁zones
worth
▁Single
dec
license
▁Vancouver
uni
▁overview
configuration
▁accompanying
▁charity
folder
NR
Init
▁pathological
FL
▁Louisiana
▁OP
alt
Additional
▁ER
▁mineral
▁ter
ending
▁Thompson
GM
Michael
▁disadvantage
▁trains
▁revolution
▁welfare
cia
▁dioxide
too
GE
▁selector
▁een
▁garage
Could
▁wires
▁au
▁mortgage
▁municipality
▁Mad
▁wrapped
atic
Policy
conn
▁Rio
▁headquarters
enter
Currently
▁Doctor
▁Lin
▁catalytic
zz
▁Gov
hood
▁pathology
▁Denver
▁Arabia
mt
stan
Down
▁Effect
elli
▁zip
shadow
▁fmt
▁Commissioner
▁occupied
▁reasonably
▁Father
alert
dots
▁Jose
Several
▁metric
▁judicial
Play
▁fate
▁Death
▁estimation
▁duplicate
Flags
▁approached
▁suppress
▁Portland
▁Firefox
flag
▁specialist
LOG
▁leather
▁resort
▁Franklin
▁numerical
▁Xbox
UK
iti
▁rabbit
▁engineers
▁elastic
primary
▁disclose
▁inverse
▁Flash
▁exploring
piece
▁conversations
bury
▁Chairman
▁conclusions
▁clarify
▁challenged
▁Au
▁adjusting
▁footballer
▁zinc
nia
▁gathering
PHP
bootstrap
▁Sec
▁experiencing
▁distinguish
may
▁contamination
▁Having
▁benign
▁dozens
▁mandatory
bp
▁Je
▁counting
▁integrate
Foo
▁succeed
▁fallen
▁coaching
sdk
rick
▁logs
▁moisture
Cr
▁Gallery
▁Cr
▁waters
▁comply
▁inflation
prod
▁rejection
▁soluble
▁translated
▁ni
▁calm
rant
▁mat
▁deadline
▁radial
rod
▁Prize
Apple
BASE
idx
▁Ra
▁tongue
▁prosecution
eo
▁refresh
▁shower
APP
▁Nature
▁BP
Ms
iff
hw
▁hearts
▁Ol
▁affairs
▁Kit
market
▁MI
▁dependency
▁venture
▁shirt
pragma
Live
activated
▁rs
ila
▁Ve
tail
▁coin
Scroll
▁complication
Original
▁ethnic
▁initiation
▁Farm
▁fuck
kappa
Gen
limits
Print
▁IFN
BD
▁Simple
cin
▁Chapter
▁Song
▁Link
important
▁disagree
▁twin
▁investments
International
▁rated
NSString
cout
ual
▁Agreement
▁timeout
▁gifts
EL
▁RAM
Po
▁verified
▁delta
▁quarterback
▁circulating
Dim
▁departments
▁Bu
▁handed
▁consist
▁bonding
xa
▁Ta
▁genomic
▁Palestinian
▁proportional
▁sensory
▁lymphoma
▁theories
▁irradiation
webkit
▁Upon
▁Taiwan
lands
▁capacitor
▁nutrition
▁manifest
▁fibrosis
▁thirty
▁Word
proto
Ho
Bi
▁recommendation
FT
navbar
▁legitimate
▁casting
Sign
▁spokesperson
ture
ION
▁ko
▁Return
▁highway
▁improves
▁selectively
emia
Early
▁prescribed
▁prints
region
soft
fen
Return
nine
Kind
▁Alan
▁sich
▁Poly
story
ming
▁skeletal
▁stunning
▁Med
▁Tar
▁Very
Pass
▁validated
▁MORE
VALUE
▁Sal
▁neurological
▁whereby
▁Active
▁tons
▁quantities
Math
▁Independent
▁sentences
▁pricing
▁Ju
▁exam
▁Within
▁suppressed
▁denying
▁Bra
▁eu
Im
▁Gulf
ATION
▁collision
▁juice
▁cement
Register
▁Baltimore
▁threw
▁mere
▁distant
▁Graham
sia
Okay
▁Expression
▁Kennedy
▁Kar
▁punishment
▁comp
▁Hunter
▁navigate
subject
TP
▁remarks
▁VS
▁Foo
▁ordering
LP
▁tu
generation
msgstr
▁GT
Doc
▁Reserve
▁Pet
▁rec
memory
Music
▁costly
gro
pd
▁Bruce
▁painted
▁vec
▁consumed
rect
▁Village
▁Bel
kit
Facebook
▁pride
▁este
▁reproduce
eva
▁bitcoin
▁coat
▁polar
▁magnet
Ko
▁Norway
WHERE
▁Multiple
▁subtle
Having
returns
unique
▁parliament
ground
Question
▁Hope
▁SS
▁protesters
▁Exception
reset
▁Fa
Great
brand
▁Liverpool
▁Sheriff
▁DJ
▁slice
▁preferences
▁inquiry
▁Meta
▁logged
▁Cleveland
▁equality
▁antagonist
▁weights
▁ischemic
▁ARE
▁proceeding
▁Official
▁broader
hy
▁polls
▁Iron
▁strictly
hot
gastrointestinal
▁locate
editor
▁encouraging
▁drinks
foreach
ama
▁horses
▁balanced
EM
▁bankruptcy
▁blend
▁petitioner
▁ArrayList
▁Blog
sar
▁acceleration
▁realistic
sudo
▁shifts
▁sealed
▁skilled
Transaction
nc
▁hydraulic
callback
▁discrete
Help
▁meals
▁decay
▁Process
▁qualify
▁Contact
▁vaccination
ago
▁Char
LL
▁pronounced
▁proposals
products
▁exhibits
▁AF
▁Mid
▁ambient
▁slip
fun
▁arteries
▁reproductive
▁Block
▁Between
▁accessed
▁arthritis
▁portfolio
▁microM
▁evolved
nis
AV
ind
▁chloride
burg
▁Federation
▁grateful
och
▁consistency
▁btn
Empty
▁sheep
bs
Language
▁antioxidant
▁trap
▁simultaneous
▁buf
frequency
▁demanding
Arg
▁sophisticated
safe
operator
▁infectious
▁entre
▁metastatic
▁Holy
▁Alliance
▁Release
▁correlations
▁brilliant
agent
▁Pass
▁tokens
▁Mer
lies
tone
▁Side
▁angles
BF
▁Des
▁Barack
▁Hz
eye
▁expects
▁Justin
▁Polish
▁dying
etta
▁Motor
exists
xxx
selector
aux
theme
▁Girl
▁justify
▁acknowledged
▁analytical
▁solving
Platform
▁steering
▁Could
owned
▁markedly
STR
ough
parser
▁babies
▁designing
▁predominantly
▁duct
▁Modern
▁genotype
checkbox
▁introducing
Bean
BO
▁Jun
▁metres
▁unfortunately
▁monoclonal
▁retinal
secret
▁Phone
▁enormous
▁aggregation
▁fantasy
ogen
▁assessing
▁loops
bash
▁Wright
▁Carter
als
▁distress
▁va
eps
▁musicians
ssl
▁pig
▁configurations
▁comprise
▁incoming
verse
▁surely
▁Culture
▁definitions
▁Pra
James
Events
▁recordings
▁screens
▁Monte
course
▁convinced
▁acted
▁Orange
▁Temple
▁Ce
▁banking
Ok
uring
▁projected
University
▁Fred
href
▁prospect
Chart
▁ip
FIG
▁allies
▁panic
▁regards
ova
Cu
▁termination
▁distributions
Word
Team
▁optimize
▁raises
▁Il
▁gravity
▁Tree
▁GET
Area
▁initialize
Women
▁cDNA
▁Build
▁Nevertheless
▁Mu
cho
▁Path
bre
▁shaped
cycle
energy
eclipse
▁extensions
▁purchasing
uz
▁compilation
▁warming
▁Additional
▁gases
loss
ceo
ters
▁Vo
Among
pers
▁recruited
▁curl
▁flights
plan
▁theatre
ick
▁mL
amente
otic
▁distinction
▁Marvel
ENRON
▁profits
uv
▁cargo
chen
▁Brazilian
▁symptom
▁blot
Cat
▁worn
▁Cape
▁Effects
▁exceptions
▁emotions
▁Dean
Socket
▁Person
▁drew
▁Putin
kt
▁responding
▁credits
pb
CODE
▁neo
▁Switzerland
single
▁sleeping
▁Guard
Robert
▁severely
▁DOM
▁designers
Power
▁Ash
▁consuming
▁preserved
▁Target
lem
▁settle
▁Disease
▁deserve
▁Direct
▁recruitment
▁atom
▁incorporate
▁Madrid
▁updating
▁veterans
except
▁SR
▁clicked
▁metabolites
▁Sort
▁hetero
▁seemingly
▁talented
▁mutants
TC
▁survivors
▁rental
▁satisfactory
▁Would
▁Sh
▁prescription
cel
▁ju
factor
▁globe
▁javax
▁refugees
▁Phase
▁Adams
visible
▁Alzheimer
▁ranks
components
▁alternatives
gh
▁crude
Appellant
▁annually
▁arch
tl
▁singing
▁Py
Metadata
▁interpret
▁beating
▁Robinson
yy
wrapper
▁strikes
▁newer
adi
▁melanoma
third
▁rival
regulated
▁BMI
▁GO
▁relaxation
▁Ci
▁Nor
▁Ruby
▁Recent
Parse
▁Stock
▁Shi
▁affirm
CIT
▁fastest
extra
▁Netflix
▁Drug
▁overseas
▁electrically
▁Fast
NH
upload
▁terrorism
▁Cy
Attributes
▁hadn
▁avoided
▁Castle
photo
German
▁Swiss
▁hunting
▁TB
▁indicators
▁builder
▁ranking
▁Recently
▁sake
tool
maker
▁nasal
▁corrected
ular
rf
demo
▁auction
▁freely
▁dining
▁Sch
▁demographic
▁Sign
▁cattle
rank
▁blast
bits
▁swap
▁Insurance
▁relies
rand
▁directors
Ab
spot
same
▁negatively
runtime
▁Download
▁deposited
▁breach
▁mock
▁metadata
▁Resources
▁longest
▁Deputy
Args
▁Philippines
equals
▁joke
▁dye
▁Carl
▁borders
▁Limited
▁noting
▁extraordinary
▁loud
▁Russell
▁rigid
▁lenses
▁equity
▁converter
bal
Short
aba
▁breakdown
▁amid
▁spectrometry
▁Hal
GP
VA
Olympic
▁vibration
▁sorted
▁theft
▁centuries
ened
▁scattering
French
▁urged
RM
▁seventh
June
OUT
Person
▁workplace
▁rugby
▁Nelson
▁sing
▁feasible
▁employers
▁responsive
▁formats
▁contends
cer
oy
Internal
▁grip
Blue
▁porn
▁belonging
gif
▁VM
▁Argentina
wl
▁Hand
▁summit
▁fixation
▁Fla
▁Var
sion
▁Website
ema
▁cheaper
fall
▁Youth
▁exterior
▁comparisons
anna
▁Cap
▁scaling
▁CM
▁operative
assembly
▁girlfriend
▁keyword
▁Economic
mass
▁amendment
Names
uck
integer
▁harmful
Single
▁Rather
▁bovine
▁Gordon
▁yeah
▁dig
▁dated
Personal
▁handles
far
▁omitted
▁Mail
olo
expected
▁regulator
Intent
▁buyers
▁Seven
cfg
▁ka
▁volunteer
▁anticipated
▁sentencing
▁preoperative
▁assembled
▁drill
ND
Loader
Fragment
yer
▁Uni
▁sorts
▁Wa
ians
▁Follow
Auth
▁Fo
EQ
▁killer
▁embodiment
▁pigs
▁Judges
▁revision
▁Junior
metadata
essa
▁forcing
READ
WT
▁neighbors
▁lesser
blob
▁sealing
ew
▁END
▁tennis
FB
social
▁lease
▁Performance
▁Front
Extension
▁airway
▁crown
▁handful
GR
▁shelter
iva
▁masses
April
▁paragraph
▁followers
▁attracted
▁deletion
tron
PORT
Information
▁temporarily
aspx
▁unchanged
Null
▁legally
▁accessing
▁Tor
Runtime
▁Bit
▁Champions
▁JP
▁implantation
program
▁estrogen
Native
▁simpler
exception
acc
▁Quality
▁subjective
▁fixing
▁axial
▁suite
Ar
▁restart
tte
▁Sta
▁inequality
▁aforementioned
▁minds
ENT
▁restoration
▁undertaken
aged
▁Default
▁ya
▁violations
gram
▁Tro
og
▁genre
bee
▁GPS
▁distances
▁dominated
▁fold
▁Son
Customer
scan
▁Nintendo
wick
▁electrons
▁Fall
▁Gary
▁cart
series
▁sits
▁discussing
▁dirty
▁dementia
forward
pu
▁intrinsic
▁donations
▁violated
▁Associated
▁manipulation
▁reject
rated
▁Township
iro
▁inherent
aw
▁Intelligence
las
iu
▁relevance
▁pit
▁Primary
▁gland
▁tetra
▁trips
▁correspond
▁balloon
▁Basic
▁piston
▁Em
drawable
ivity
▁outbreak
▁Harvard
sten
▁adapter
esh
▁flood
▁endpoint
▁Save
pot
▁searches
▁elite
▁Neither
▁vegetables
▁hiring
▁Kon
compile
Private
▁aggregate
▁villages
oni
▁cyber
sig
▁ED
▁mathematical
gene
▁Steven
▁lengths
▁analyst
▁executing
infected
▁connectivity
Standard
▁Josh
▁Count
▁determines
▁Students
▁beef
▁exceptional
▁Rich
▁Connecticut
▁mov
▁predictions
storage
▁Gi
LD
hill
▁Ice
▁placeholder
nen
rio
▁stocks
▁bones
PF
▁Communications
▁tmp
▁overlap
▁stats
LV
Tool
large
tax
tc
▁patents
▁polymers
▁employing
skip
Sorry
ao
▁orbit
▁fence
▁php
▁coins
▁wooden
▁VA
▁turbine
▁statutory
▁Meanwhile
▁Stack
▁templates
▁essay
commit
▁enjoying
▁prototype
nce
Pattern
▁Typically
▁Reading
▁Unlike
▁regulating
▁cytokine
clean
▁preparations
▁discharged
▁compromise
cli
Selection
▁artwork
▁Cl
▁standardized
kel
▁Railway
▁Cooper
▁pressures
British
▁py
▁ISO
▁anger
uid
▁golden
▁Anna
▁achievement
▁LT
▁spreading
▁ceiling
▁Nation
▁initiatives
▁lesson
▁amplifier
▁browsers
▁exceed
▁Bor
dat
Rows
▁sec
enabled
NF
▁celebration
▁parser
Special
lik
▁Jane
▁accepting
reader
▁earnings
▁saline
imp
▁credentials
ester
▁Appeal
basic
▁nucleotide
protected
performance
uro
▁lineup
▁Oil
▁habit
▁alloc
sal
▁Phoenix
▁accessories
▁friction
▁innocent
▁meter
tation
Domain
▁painful
▁residue
Encoding
feed
▁vertex
chat
▁delegate
▁schemes
lis
▁Orleans
▁shifted
Scope
▁merit
timer
▁relatives
▁structured
▁digits
som
▁builds
▁Biden
▁forecast
▁scans
fully
maps
▁inferior
▁pod
Pool
▁SDK
▁warnings
▁electronics
▁surgeon
▁Christians
TX
NOT
Transform
zh
▁constants
▁corporation
REG
▁sleeve
TextView
▁tire
▁Chem
▁dopamine
▁mammalian
ay
clock
▁arrow
▁adequately
▁pepper
FO
▁bo
company
▁identifier
▁theater
election
▁motivation
▁contributes
▁sectors
▁Mor
▁NCAA
▁Compared
nut
lite
shan
RNA
▁sink
▁img
▁Nevada
▁ventilation
would
gui
browser
▁nutritional
iki
▁att
MY
groups
▁delays
▁Douglas
▁proto
Populated
▁Aim
Ne
▁Mississippi
▁hoped
▁mad
▁fleet
▁attitudes
▁stepped
▁listener
▁arising
roll
asm
▁Den
▁allocation
Japanese
Love
dialog
▁ski
▁incubation
▁strengthen
▁succeeded
▁Hor
▁Pittsburgh
▁sexually
▁Staff
uch
DateTime
wire
figure
▁NMR
▁lid
▁temple
▁networking
enum
▁habitat
mx
▁Deep
Advertisement
▁barrel
▁wash
▁Print
▁Secret
boy
▁avoiding
▁coated
shop
▁dropping
▁fluids
▁tuberculosis
▁Everything
▁cleared
Unknown
switch
▁incomplete
▁precursor
▁extensively
▁Matthew
talk
▁Representatives
▁prompted
▁ankle
valid
▁gym
▁flower
▁islands
▁metallic
errors
▁atrial
▁mutual
chart
▁Andy
▁fractions
nz
love
▁Greg
TF
▁Environmental
▁Baker
▁disadvantages
▁Hawaii
oz
enberg
▁citing
regulation
▁questioned
▁Machine
▁adaptive
rating
MI
▁attorneys
▁demonstrating
▁dot
MENT
▁donation
ipo
UL
▁tra
▁leakage
▁exercises
typeof
▁Being
EX
▁viability
chip
ically
▁Brooklyn
China
▁metastases
▁transparency
▁grows
▁beneath
▁Liberal
▁exclude
▁wrapper
▁competitors
▁nationwide
▁purchases
Wait
▁polymorphism
film
▁speaks
▁Cox
details
zeta
▁addiction
▁Intra
▁kinetic
▁Lane
▁Lincoln
works
▁lands
▁Commonwealth
▁rocket
▁radar
▁impressed
EA
▁withdraw
▁Body
CSS
▁silence
▁Fisher
▁invite
▁Thread
▁neonatal
Basic
Animation
▁ceramic
cells
illo
Head
▁linking
▁copied
pages
checked
encia
▁publisher
▁Pay
▁Laid
▁ORDER
▁amplification
design
▁podcast
subset
▁Learn
▁Arkansas
▁municipal
▁registry
pipe
RO
xf
▁habits
▁flowing
▁Thailand
▁hint
ening
▁nights
▁PET
▁slope
det
▁divorce
▁shoe
▁descent
▁trim
▁fighters
▁interviewed
▁Tr
▁elegant
▁similarity
treatment
tim
▁zoom
▁resume
COM
encode
▁Hell
▁Professional
▁guided
Ba
▁legend
Graph
▁completing
▁conditioning
▁volatile
nl
▁lyrics
etti
▁gaps
▁router
▁suited
▁lattice
▁Fifth
aro
▁Brand
gz
Submit
▁romantic
tf
cluster
▁Azure
Copyright
Mobile
▁rhythm
▁Response
▁sons
Audio
▁bugs
volume
July
▁crossed
▁Alaska
▁consultation
Art
Move
extension
▁Example
▁Finance
▁norm
▁docs
▁KEY
▁implants
▁underground
▁lip
▁Evans
hit
▁participant
▁inadequate
▁Excel
▁twelve
▁demonstration
seed
▁scratch
owner
▁Malaysia
▁equilibrium
objects
▁surveys
▁dispersion
▁desert
disambiguation
sound
▁Et
▁aligned
question
▁ESPN
rp
▁bis
Mapping
▁envelope
▁Charlie
▁Sand
bor
▁problematic
▁stake
found
▁gem
▁visibility
▁ballot
nb
▁Za
Meta
▁WO
▁thereafter
▁filtering
▁compartment
▁Ru
▁bash
▁Wal
▁overhead
▁drilling
▁assemblies
▁washing
Com
▁rack
▁conditional
▁rolled
lot
▁ASP
tile
▁payload
▁microwave
▁planes
Sigma
▁Hol
▁deadly
FR
▁pizza
▁flap
lig
▁Tab
▁Write
▁nuclei
▁simulated
▁metrics
▁Lawrence
decode
▁Tra
▁Books
DEBUG
▁cycling
▁epi
cam
ERR
▁obese
▁cotton
Role
▁ctx
▁recipes
▁thermo
▁OTHER
▁conserved
Driver
nor
▁coordination
▁commented
▁proximity
▁conflicts
cdots
▁Indonesia
Earlier
▁dump
Wrapper
▁activist
pf
▁Stewart
Dictionary
▁elimination
▁Wind
▁AL
▁subunit
▁transported
dio
▁api
▁peaks
▁probable
lp
▁cout
▁cables
▁Mission
▁Ultra
▁pg
▁Anne
▁commercially
▁CV
Keep
▁HERE
Detail
▁Christopher
▁Murray
▁wiring
sz
▁Swift
Plot
▁governed
Whether
▁launching
▁hack
▁outlets
▁APP
▁perfusion
▁sulfate
▁Activity
▁Files
tier
pair
▁Besides
ect
HL
▁computational
▁fabrication
▁Corps
▁bow
Master
▁Shop
▁bore
▁cricket
pol
▁Things
▁Maine
▁tubular
▁imported
leg
▁straightforward
bert
▁bare
▁yard
▁educated
rn
ack
▁mystery
Place
Something
rad
Namespace
hn
oppo
MAP
UM
shot
▁Electric
▁MIT
▁trusted
sequence
▁heritage
▁shield
eval
URI
▁Stage
USA
▁breeding
▁packets
▁pl
mathfrak
▁Ze
▁Leader
▁bat
▁unemployment
▁conductor
▁lean
jsfiddle
Yet
pay
▁coronavirus
▁Wolf
dic
▁opposing
▁Jonathan
bell
▁bottles
▁trunk
▁VALUES
▁examining
▁geo
▁FREE
vol
▁nominated
Ti
Draw
lc
▁dir
directory
scroll
▁critically
lit
into
NG
income
▁Convention
▁tears
WS
hd
brief
▁embryos
UD
strip
▁missile
▁productive
▁upstream
▁Never
▁Dog
▁antimicrobial
ador
cas
▁nomination
ole
aries
▁chunk
ked
▁FT
LS
Enum
gin
▁schizophrenia
Comments
▁Switch
▁pub
Generic
Db
▁za
TE
▁paired
▁grants
plugins
looking
independent
Descriptor
▁probes
▁classroom
ili
▁tablets
printf
STATE
▁Arthur
▁insulating
▁compressed
Converter
▁SET
founder
dog
Accordingly
▁Br
Hope
Lu
rr
▁morphological
▁infrared
▁canal
▁favour
▁regeneration
▁implicated
▁proceeds
▁polarization
nk
▁reasoning
▁histological
DATE
phenyl
Invalid
▁lane
Admin
▁promotes
▁Wayne
▁WE
pointer
▁comparative
OD
▁flu
▁Bond
INCLUDING
▁voices
ADVERTISEMENT
▁attendance
flex
touch
vir
▁Shin
wind
▁colorectal
Ag
▁electromagnetic
▁transcriptional
▁Conservative
▁Ward
▁Mueller
▁Freedom
▁burst
PH
▁Hat
▁fires
ied
▁substitution
▁counties
▁Stat
▁endo
▁AV
▁bowel
▁enforce
guard
ende
▁COPYRIGHT
drive
▁HLA
Timer
▁kinetics
MF
▁reviewing
hen
lv
mock
▁inch
apk
▁GP
▁Fu
▁cryptocurrency
gre
oriented
▁newsletter
Looking
▁UFC
▁prevalent
assets
▁SYS
▁disappointed
gem
disabled
blogger
mount
▁CB
▁consume
Former
rng
▁inhibits
▁NE
▁Steam
Mon
uda
▁distinguished
STRING
▁laugh
▁Ger
▁Animal
▁iconic
aki
▁MPs
▁Dor
▁colony
▁TGF
▁pins
▁Otherwise
▁Estate
YES
▁Resource
▁pads
▁picks
ello
▁inappropriate
Getty
▁referenced
▁Hg
eno
mbox
▁Private
▁assists
▁reproduction
▁Gy
Complete
▁hotels
▁adsorption
▁Collins
▁Environment
contains
audio
bundle
vy
▁mountains
▁allele
▁logistic
▁workshop
tx
dra
▁ligands
Age
ibility
▁besides
▁inherited
Children
▁Juan
▁Money
validate
▁DateTime
▁Res
▁Too
plain
▁Eq
▁Vector
▁pie
Sum
▁uni
years
Definition
▁FL
▁fears
▁Framework
▁apt
ily
▁Carr
▁cert
▁PG
▁replied
cio
proxy
▁excitation
▁labour
▁Ang
LO
▁bail
▁motivated
resolution
▁revised
cart
pal
▁typing
ridge
special
Resources
▁modest
▁trucks
Variable
RC
Speaking
▁iso
ISO
▁notably
lk
posts
▁globally
merge
▁transistors
▁acres
lia
▁knock
▁enters
▁mas
▁harsh
Furthermore
▁ascending
▁shed
▁Shah
setup
AE
▁indoor
▁Cho
▁parks
▁fucking
▁wallet
xl
▁corporations
ency
metric
▁quest
▁amended
▁parental
▁bronze
▁isolate
▁archive
▁photographer
▁ISIS
npm
▁stereo
▁CURIAM
▁Share
VS
Phone
▁instability
▁stressed
▁Fourth
▁repo
argv
Iterator
▁automobile
eau
▁homeless
▁stenosis
▁ears
yu
▁Marc
▁deposits
▁CE
Jan
▁fruits
▁instantly
▁privilege
Sources
▁Details
▁tf
▁lithium
▁unrelated
▁confusing
▁bubble
▁stationary
dfrac
▁Mom
chemical
▁makeup
▁cartilage
▁SW
▁tune
bach
▁Mill
▁IBM
▁enhancing
corn
▁Urban
▁influenza
▁Jimmy
ubuntu
▁exclusion
▁incubated
▁Rod
▁LV
▁pharmaceutical
remote
▁Tur
▁pd
hop
▁Come
▁diffuse
fin
lick
itch
▁formulation
▁Rules
blank
effective
▁congenital
▁Getty
OC
TIME
density
▁wheat
ash
▁apple
▁Mas
▁visa
▁Pope
▁PT
▁predicting
▁celebrated
▁qualitative
▁NaN
▁dirt
▁Dragon
▁Baseball
USE
▁illustrate
LM
▁Say
▁Guardian
▁gen
berry
▁restrict
▁refuse
▁sliding
▁ps
▁wishes
ess
▁devoted
▁bucket
▁Montreal
▁Together
lower
gc
dor
though
▁Account
▁diff
links
▁multivariate
ache
door
▁Sep
slice
Random
▁racist
amount
▁climb
NN
complete
▁starring
bold
VI
ill
catch
Services
phosphate
▁disruption
▁rush
▁Tan
WriteLine
arc
▁PE
▁Step
protocol
▁micrograms
▁earning
▁hereby
Such
▁walks
▁Think
▁methyl
fat
▁goto
Would
▁CYP
Author
Mock
▁mapped
▁Neuro
MG
▁helper
▁Mode
▁struggled
▁Gray
▁analyzing
▁Belgium
distance
structure
▁steep
ROOT
▁Technical
▁GA
▁Puerto
▁Made
▁Profile
DL
▁cumulative
ense
cum
▁Kings
▁subgroup
▁Dakota
▁curriculum
ht
▁predictors
▁corners
▁interfere
ators
▁debris
▁Edge
Flow
▁ensures
▁Tel
▁Universal
▁VI
SK
bis
▁Pin
▁ecosystem
PK
▁Advanced
▁disappeared
ore
▁toys
builder
▁newest
BT
▁Barcelona
aj
running
Render
▁resting
▁mill
▁threatening
▁Tesla
August
Memory
▁Large
SI
▁periodic
▁attacking
▁Reg
▁advise
Float
ente
▁churches
▁Romney
▁transcript
ander
Air
▁murine
▁Classic
▁Bull
▁felony
▁STATES
ison
▁runner
▁wrist
▁defending
▁relay
das
▁failures
aut
▁Hart
IM
▁dishes
▁snap
▁tyrosine
▁considerations
▁carpet
▁bull
choice
fail
▁mu
▁premier
pg
Cloud
▁Sean
▁Campbell
tas
writer
▁stays
▁Yo
Statement
▁Geo
▁lowered
▁certification
sie
▁Sport
▁concentrated
Without
▁arguing
▁bracket
▁Tower
▁Roy
▁prayer
▁exchanges
sea
▁joints
▁expose
ici
▁Author
▁Similar
fly
▁Arena
▁IGF
▁cock
▁wages
▁complementary
building
▁maintains
▁het
▁spare
▁han
▁scientist
▁shame
▁eine
▁Chelsea
▁Spirit
▁Coach
▁differentiate
▁stent
▁demanded
▁Ant
▁advocate
▁submission
▁Sur
Mc
working
itz
▁matrices
▁Marshall
bro
▁casing
sheet
▁dorsal
▁tropical
otimes
▁encryption
▁twist
▁afterwards
▁wounded
cro
▁CIA
▁Challenge
▁convince
▁retailers
▁Susan
▁Peace
words
feature
God
▁fossil
▁bra
▁intelligent
▁Something
operation
pat
EB
▁vor
▁Zu
▁Bus
▁soup
ern
▁Mind
▁bu
▁march
▁actin
▁Works
▁ld
headers
kh
aga
NB
MODE
▁Knight
▁eighth
million
▁occlusion
▁presumably
▁latency
▁Czech
▁jumped
▁missions
rar
▁Murphy
▁Remember
▁Stop
▁shipped
origin
▁teaches
batch
NY
RL
iko
▁className
uses
▁spotted
▁Mann
▁crops
▁untreated
▁permanently
▁indictment
SYS
GT
▁cyst
ites
▁drums
▁hybridization
▁cons
Va
ings
▁commander
AI
▁Hyper
▁Angel
▁regulators
▁vendors
▁Boolean
▁discusses
▁dict
Limit
Loading
▁starter
▁connects
▁microscope
▁organisations
aire
Posted
▁notified
▁humanity
▁easiest
books
▁composer
▁wildlife
▁circles
Recently
▁dat
▁Clear
imi
▁voluntary
▁Risk
▁poster
charge
▁relax
classes
dark
▁UC
▁undesirable
ident
▁Comparison
rw
▁acknowledge
▁COVID
▁dried
▁Specific
lyn
padding
HF
▁regimen
▁CL
▁deficits
turn
Clear
▁holidays
tbl
Summary
▁jazz
▁invoke
Byte
Te
▁contraction
ille
bra
▁novo
▁mechanics
neq
▁DR
days
▁pickup
fixed
▁Job
▁SL
▁SB
▁stat
▁merged
▁traditionally
ert
original
▁colours
▁Gal
▁ethical
▁valves
ViewModel
▁Manhattan
▁thorough
▁neighbor
▁Ac
▁photograph
▁hunt
▁fin
junit
▁emitting
alis
tia
▁fighter
▁keen
▁retro
▁Nigeria
▁Bon
sil
▁LPS
factory
▁NH
ket
▁constraint
▁scandal
▁radiotherapy
coming
▁Penn
▁vaccines
▁agonist
▁tweets
▁Assessment
VP
▁AA
chy
▁Much
▁supplement
TU
▁tremendous
▁accounted
▁brick
▁assumptions
▁Remove
▁contributors
▁thoroughly
kr
▁optic
yi
▁Norwegian
atory
▁pulses
▁microbial
▁Salt
▁formerly
tom
ister
curl
▁obligation
▁cylindrical
▁teen
▁explosion
kernel
Selector
▁plaque
youtube
▁Forum
▁Address
Bit
▁spiral
▁unstable
▁prisoners
▁EVENT
▁Girls
▁Cohen
▁impose
kk
▁Marketing
kov
▁anesthesia
▁Jerusalem
▁pathogens
▁Friends
▁Sales
Framework
▁champions
Os
▁bile
powered
▁landed
eri
Em
Protocol
▁esta
signal
▁kan
PAGE
lly
UC
ges
EST
Notification
▁glasses
invoke
▁trapped
business
▁Ukrainian
▁soap
mut
▁AB
▁deciding
▁Gil
▁dps
▁aromatic
▁Kra
▁oh
rev
trial
ABC
▁femoral
matic
Perhaps
▁badly
Below
▁mega
Rearrange
▁Hills
LIST
▁Glass
▁Gor
▁trash
▁folk
▁Ros
hm
▁symmetry
▁Hampshire
▁compelling
▁wounds
ndo
got
supplementary
▁earliest
▁Quebec
TABLE
▁Hunt
▁flour
▁Face
▁lightweight
▁AWS
▁Customer
▁averaged
sent
▁analysts
DI
▁Albert
mk
▁Lower
▁Military
▁sed
views
reflect
▁potassium
Region
▁rotational
▁intend
▁Kin
mentioned
▁asylum
Timeout
January
▁DAMAGES
▁microg
▁outline
▁iteration
logy
▁epithelium
Mail
▁Learning
abi
gn
▁audit
▁agriculture
▁litigation
▁Trail
▁Warner
Mi
▁prosecutor
▁loving
▁administrator
▁reservoir
▁surprisingly
▁NT
UV
▁Methods
▁technological
▁basement
▁Audio
▁organize
▁conform
▁Examples
▁verification
isi
▁burned
Pr
▁necessity
▁executives
▁hill
▁timeline
▁css
sleep
▁reactor
▁env
scala
Fields
▁gaining
eria
▁hiding
▁artistic
iest
▁defender
▁forgotten
▁assisted
▁writ
mia
▁Sex
async
▁Arch
▁renamed
fan
hex
▁tar
▁sequential
Sent
▁Queensland
▁copying
▁abundant
RI
▁maximize
KO
▁pharmacological
grad
idad
wr
▁boom
▁slots
▁adherence
▁gorgeous
▁royal
▁arena
timeout
convert
▁Denmark
▁hi
Processor
▁discipline
eus
boolean
around
dine
▁CONTRACT
▁worship
vid
▁MY
▁sorting
Rate
seo
▁compressor
available
▁Ty
▁Mitchell
tp
een
tek
▁caps
▁distinctive
▁compatibility
circle
▁Display
▁migrants
▁Everyone
▁technically
chloro
▁trait
Due
▁shifting
ude
▁fur
▁Portugal
lier
rl
▁tanks
pod
▁Below
did
▁arises
Reg
▁Visit
▁Perry
ides
▁epidemic
issues
▁bot
▁novels
oxy
▁Bangladesh
▁Eclipse
IST
Kit
▁garbage
attributes
▁Cut
▁NSString
▁Client
TER
▁GH
▁carotid
▁rocks
▁drainage
▁Ted
▁lasting
rec
▁editorial
▁prone
▁scanner
sam
walk
▁rails
Mask
▁Craig
▁makers
▁lighter
ther
Sync
▁medial
hem
▁humor
iri
▁Race
▁criticized
▁stimulate
deg
▁ut
October
Peter
▁Roger
responsibilities
comments
▁Rad
▁Egyptian
▁referendum
▁Parker
Water
sol
▁dismissal
▁Explorer
▁harassment
▁shutdown
▁beds
BY
▁THEN
▁TODO
Da
bon
▁spokeswoman
▁euro
NEW
▁crystals
▁yielded
▁Mario
▁doctrine
▁EPA
coin
▁Palm
▁seasonal
▁hormones
parameter
▁vinyl
▁Dublin
MAN
Trigger
▁epic
▁premature
▁rookie
▁Mur
lip
ERS
September
▁albumin
▁simplified
Tr
idine
▁architect
▁alien
▁locus
▁Zone
usb
▁approaching
▁Eu
▁delivers
nabla
pes
wikipedia
▁Grade
Off
▁Laboratory
▁prosecutors
▁duo
▁nail
▁SSL
▁sponsored
▁Need
InputStream
▁Products
▁counted
Success
▁patches
wal
▁WHETHER
▁traded
▁della
DEF
▁Abstract
▁redistribute
ats
▁Immuno
▁vendor
▁Lab
▁institutional
nos
▁uploaded
▁Days
▁TRUE
construct
▁traveled
▁Record
▁screened
food
▁hollow
▁Morris
▁dairy
▁probation
RB
▁happiness
DG
▁grades
Divide
floor
▁renewable
FU
▁Javascript
FileName
wheel
▁alias
ees
▁appropriately
Ta
hin
tap
▁creator
▁bears
▁elementary
▁dressed
Business
Sp
▁coastal
▁Ave
▁kicked
Duration
▁Studios
▁incorporation
▁Revolution
▁charset
docker
▁colored
▁Larry
Dec
▁cleavage
▁dissolved
▁strongest
CMD
▁TORT
optional
▁mmol
▁uncommon
sided
contents
▁Sol
▁transitions
Health
▁peaceful
proof
▁complained
Generator
▁Palace
dest
Design
▁inconsistent
igo
▁Baby
▁relapse
▁Jacob
▁purely
▁cruise
bug
▁assessments
dm
processing
▁HN
▁literal
rou
Tech
▁reflecting
▁AIDS
wear
▁TF
▁Det
▁Ill
dig
▁Uber
▁freeze
▁tender
▁ARISING
▁pension
▁stance
▁suspects
▁Background
RD
▁airline
▁subscribe
▁pivot
▁Eli
Series
why
▁Commerce
▁Cameron
ality
▁GUI
▁widget
rep
▁Zn
MV
Sometimes
▁parish
▁BA
▁autoimmune
▁apo
production
▁Karl
elo
▁imp
▁Barr
Old
▁sinus
▁Tre
Human
▁overwhelming
standing
▁cry
Consider
▁creature
▁seizures
▁sustain
Logger
▁safer
▁integers
setting
▁affiliate
▁investing
▁specimen
▁Snow
▁illustrates
▁MVC
ended
▁ineffective
rise
hir
RED
▁reversible
gm
▁endless
▁passionate
logic
Ac
▁donated
▁Reference
▁DS
▁centered
borne
▁Button
▁dealt
▁Buy
▁Cole
hp
▁centres
▁Cam
tty
▁specifications
▁Wang
▁HF
▁formally
Face
▁Gun
▁Dev
▁researcher
▁cre
▁paintings
▁Engine
▁fibroblasts
▁BR
▁endoscopic
▁slave
Sun
▁strips
▁examinations
disable
tm
▁calibration
▁speculation
▁Metal
▁VP
▁Experience
conv
Feature
machine
Ru
▁Gro
Insert
▁stones
▁Kent
▁Interestingly
▁sig
▁GDP
▁wings
CHECK
▁Transport
▁musician
▁trafficking
▁feasibility
▁profession
▁labeling
▁insisted
▁Aaron
CPU
▁rim
▁nominee
stroke
▁occupation
ones
▁manuscript
progress
Amount
▁Fan
scripts
▁jo
▁alloy
ime
▁Request
aan
imo
▁Ur
built
▁Luke
▁mac
▁praise
bel
▁syn
Company
▁Mono
▁Modi
▁washed
▁injections
▁prospects
▁Medal
▁Rico
approx
mn
▁signatures
▁contention
OL
▁Fine
mix
▁accommodation
WD
▁Medicare
▁successive
▁assure
▁invested
▁Plant
▁dies
▁routing
Press
▁laparoscopic
▁streak
▁Complete
▁Send
segment
att
▁rap
▁notifications
▁sexy
▁bite
▁creatures
▁competitions
▁Travel
▁surge
▁soldier
▁Honor
nova
sti
BUILD
▁optimum
▁outlined
▁Carlos
ering
▁AFP
▁IR
▁Charlotte
trim
▁Wikipedia
▁wanna
▁Austria
ics
▁Villa
▁Kate
▁Hockey
deep
▁allergic
▁honey
▁Gr
wo
ying
▁decides
▁cv
Demo
nr
endo
▁controllers
▁UP
▁Dam
sw
▁SEO
Friday
▁epilepsy
intent
hol
neg
▁pause
▁Stanley
stand
▁transgenic
▁NP
Dis
▁financing
▁RD
▁nozzle
Quote
phon
▁mud
getName
▁OTHERWISE
▁THAT
▁SHALL
▁shear
▁rolls
between
spin
Def
▁electoral
▁processors
customer
▁embryonic
smith
▁lungs
▁mucosa
sl
Cal
maven
▁Watson
PB
▁spite
▁lazy
▁Close
▁Talk
▁transverse
▁tale
▁embryo
▁hemorrhage
▁Fr
▁oriented
▁unprecedented
Sheet
▁transmitting
▁wo
▁Turner
▁sequel
▁approve
WE
▁premiere
HB
▁Opera
duration
▁logger
▁Solar
▁supportive
Works
▁forgot
December
George
▁guides
▁Working
▁WT
▁fulfill
▁Commons
Canadian
▁USD
Methods
▁NK
▁FDA
▁evolutionary
▁magazines
▁Thirty
▁punch
vendor
Bind
▁forums
▁Cold
▁microscopic
Du
▁Mall
▁premises
▁putative
▁assured
▁EXPRESS
ario
Upload
▁scared
▁Morning
▁uncertain
▁naked
fm
▁downward
▁PO
canvas
▁concurrent
Their
▁playoffs
▁routinely
▁correlate
Equal
▁blades
▁accumulated
▁unions
sale
Bound
▁Dick
▁pneumonia
ede
▁advocates
lateral
▁Ok
▁pursuit
▁terrorists
▁HCV
reported
▁relied
▁contributor
▁TR
prev
wd
▁ambassador
going
USB
SUB
spi
▁precious
cond
horn
▁memo
▁draws
Later
sure
▁Heat
▁Lang
bol
▁gr
configure
▁sketch
▁senator
▁monster
▁legislature
loaded
▁opioid
▁Exp
ock
spir
seven
▁orbital
Supplementary
although
▁nitric
ode
initial
▁als
▁mal
▁Volume
▁Train
▁resigned
▁Crown
chrome
▁congressional
▁foster
▁vertices
Bio
shire
Cap
▁executable
▁programmes
▁ugly
▁impedance
▁prejudice
▁Years
ean
▁spark
▁voter
isa
▁cancelled
▁preservation
▁juvenile
▁proton
▁trillion
gon
Counter
LED
Ja
▁excuse
▁perpendicular
▁packing
▁mysterious
nat
LU
Tom
▁Ever
▁symptomatic
lets
▁steal
columns
Recent
toxic
▁pants
▁pays
ign
▁wise
▁Walter
branch
▁Internal
▁detectable
▁mellitus
gp
ometer
▁inexpensive
▁Steel
▁catalog
▁exceeded
▁beans
▁boyfriend
apt
▁proc
▁generalized
lb
▁diode
▁forests
▁bullet
▁Speaker
▁Heritage
mr
▁absorbed
▁revealing
▁rabbits
REQUEST
kl
histochemical
Bur
▁Criminal
▁annoying
▁Roberts
▁Storm
▁mitochondria
▁Grid
▁founding
▁touched
▁leverage
▁clutch
▁nonprofit
AG
nam
▁hypoxia
▁transfers
graphic
logical
▁ridiculous
sizeof
▁stained
▁marginal
▁Gra
▁Tournament
filled
Touch
▁Pri
cz
mers
Failed
Family
▁venues
▁Mont
▁expectation
period
policy
▁daughters
▁Costa
▁arrange
▁Join
▁Century
timestamp
Progress
ox
oil
HOST
▁Fame
Answer
▁filtered
▁accidents
▁seized
ony
Side
Biography
Sql
▁Participants
▁erred
▁indexes
▁Robin
▁AG
LF
▁Fri
▁Beck
▁tactics
▁exploit
Jo
Cursor
▁tribute
SRC
especially
▁LIABLE
Shape
▁terminated
▁Cd
▁clarity
Ver
▁depressed
▁accelerated
▁iterate
▁marketplace
▁Finland
hh
AFFIRMED
▁cows
Chris
▁TD
▁travelling
Hu
DataSource
▁prohibited
Flag
VO
▁Venezuela
▁castle
▁shelf
▁ent
sic
▁rewards
▁exec
▁groove
▁Sim
▁jacket
scanned
▁Philip
tric
▁instrumental
▁dancing
▁Hay
cause
priv
▁urgent
Mat
▁exports
fed
▁beams
▁PV
▁aux
fmt
▁plots
▁AMD
rx
▁bounds
transition
vor
sci
▁dist
▁emitted
craft
▁newspapers
▁provincial
VR
▁baking
▁cloth
Uri
Films
▁handy
▁firearm
DN
▁interleukin
▁SM
▁priorities
Boolean
▁creativity
▁Forces
▁Jerry
▁Quick
▁din
ific
▁stamp
Tests
▁trivial
▁fn
inf
RES
▁Iraqi
Nav
▁turnover
RU
▁peers
▁casual
▁clerk
▁dosage
BEGIN
▁incorporating
Su
direction
▁outfit
▁Generally
▁Industry
▁spam
▁Yan
CSF
▁Lions
▁permeability
▁approximation
Keys
TT
PDF
▁PL
▁sera
alias
moz
nell
▁Alberta
▁margins
▁PROVIDED
▁Crystal
▁combines
Warning
▁joins
vic
syn
▁snippet
Arr
▁detention
▁biomarkers
▁spacing
NUM
hou
stmt
Execute
▁constitution
▁primitive
▁Fin
▁Lisa
▁Theorem
ord
Supp
Die
central
▁colleges
rose
▁defer
▁Gaza
TEXT
▁maturation
▁onclick
▁disclaimer
▁iTunes
blind
▁recalled
▁bother
▁NEW
▁Random
▁tabs
▁comics
▁HPV
▁circuitry
motion
▁cytotoxic
▁legendary
▁nicely
stats
IB
▁timestamp
▁Oscar
▁toner
▁emotion
▁Enter
Cor
▁apologize
▁Border
▁tin
MIN
EU
▁unlock
nodes
▁athletic
vel
▁diamond
▁capillary
▁synthase
November
Theme
▁increment
helper
▁coordinator
▁Speed
Ctrl
▁Changes
geo
▁owns
▁wisdom
▁weakness
TN
▁polynomial
▁constitutes
▁Neo
▁civilian
▁amateur
▁cleaner
OM
▁wherever
▁indications
▁Memory
▁casino
▁shallow
vu
▁spectacular
▁intestine
▁farms
dem
▁Different
▁LGBT
▁triggers
▁PhD
Ben
▁democratic
▁cl
▁accepts
▁readonly
effect
forEach
sym
▁securing
▁Eye
Br
▁olive
▁damaging
ania
▁honestly
▁Amy
▁grave
stimulated
▁Load
▁playoff
▁ought
▁Raj
nica
▁pipes
▁Consider
▁Original
Very
▁testosterone
▁lag
▁cabin
▁inability
OO
▁od
▁Escherichia
▁motions
vit
▁Tea
▁Intent
assign
eck
rid
▁bicycle
▁dire
Mu
▁auch
▁preceding
▁essence
▁neighboring
forming
▁folding
▁profound
ota
▁genera
▁collector
constant
Additionally
▁fascinating
ech
▁caller
ctrl
fff
▁notation
▁Emergency
▁Ian
Props
▁qualifying
▁HE
▁genetically
▁oils
▁TA
▁innings
▁civilians
▁arriving
▁insulation
Inter
rah
outs
Previous
rit
▁dispatch
▁practitioners
▁depletion
▁poetry
▁INT
▁winds
▁liable
▁durable
▁diesel
▁Eagles
bird
▁dys
▁cow
Objects
▁differentiated
uma
handed
cip
▁Qu
SW
▁Terry
nas
▁WHO
▁tourism
Cost
ais
▁alkyl
▁distortion
Collections
hon
▁consciousness
▁Status
▁excitement
▁machinery
Prefix
▁drawings
▁maker
▁toilet
▁practically
▁aus
▁Marie
▁Woman
SG
▁Size
▁specially
AK
▁cone
Div
▁POST
▁Movie
Temp
▁advantageous
LR
VER
▁authentic
▁Pradesh
ple
▁taxi
▁HAVE
Worker
▁Sin
▁collaborative
erson
▁dressing
▁transmitter
ses
▁audiences
▁Earl
▁rotary
▁Bag
▁Mix
▁Danish
▁Mun
▁electrophoresis
▁robots
SERVER
▁Chair
▁notify
▁Yeah
TY
amo
▁Virtual
XX
▁tourist
poll
▁Rat
bet
▁Stars
▁influential
anne
arian
▁reserves
▁nowhere
matched
▁Fish
▁manipulate
Forms
▁dialysis
▁normalized
VE
▁implicit
cid
▁vulnerability
FN
deb
enron
Gu
▁Nebraska
▁suits
▁throat
▁commentary
Extra
▁fu
▁Az
▁silly
▁Samuel
▁hazard
▁dip
▁wore
▁encode
Th
▁fabricated
GG
▁imply
ilo
rea
▁respondent
Fire
▁triangle
cases
quin
Anyone
▁INCLUDING
quote
▁aperture
gradle
history
▁dehydrogenase
Remember
▁defective
▁Chile
▁Brad
answer
▁Rails
▁Barry
▁Know
keep
Dan
BI
▁flame
▁Sho
▁McDonald
Major
▁VEGF
▁Assert
▁ft
▁steroid
wer
▁minus
▁nonlinear
▁cartridge
▁consultant
▁Mag
router
oka
▁lit
▁Kat
calc
▁Dun
▁pleaded
▁corpus
▁dass
▁adenocarcinoma
▁counterparts
▁predictor
▁frontal
▁Annual
jQuery
▁ablation
tain
▁systolic
▁eager
▁Draft
▁collateral
▁Mah
▁Motion
▁lifted
▁pointers
▁MAC
▁TS
▁retrieved
▁buses
▁atmospheric
▁disposal
ego
Anti
▁viewer
▁excretion
▁listings
▁nut
▁varchar
Cells
Split
▁thumb
▁consult
▁Stanford
▁spaced
▁remembered
▁underneath
boldsymbol
▁cups
▁plasmid
▁Giants
dependencies
ulus
▁synaptic
▁filtration
RP
sley
▁alike
▁frustration
lation
Append
Dynamic
▁penetration
clone
Online
▁confined
▁Role
▁diets
▁elaborate
▁Evaluation
▁Cost
vet
▁icons
▁suspicion
datetime
▁slider
▁holders
▁abused
▁NATO
▁unwanted
▁propagation
▁folders
▁sobre
▁lifting
Plus
Effect
▁affiliated
▁satisfying
GH
▁shocked
▁lacks
House
▁penalties
▁Enterprise
▁conn
▁Richmond
▁lasted
ethyl
▁seizure
▁Indians
Nothing
Struct
DEFAULT
▁reactivity
htm
▁companion
Until
▁xe
cursor
Err
▁Ring
Sh
Columns
▁Sci
Psi
▁Todd
▁regret
blo
▁MHz
john
▁rewrite
Small
Russian
kes
footer
▁SH
issue
▁leap
warning
▁slices
▁Benjamin
▁workforce
▁repairs
▁funeral
olin
▁fluctuations
▁PP
▁phenomena
▁Protocol
▁Golf
▁naming
DH
▁tile
Allow
argument
▁potentials
▁XP
Sha
▁dt
▁Ana
Radio
▁varieties
▁loyal
▁ethics
▁cloned
▁tre
▁remind
Appeal
▁Privacy
▁skull
▁Pla
Prior
general
▁numpy
▁drying
tip
▁Fat
▁Met
▁tuned
▁retaining
sus
▁spleen
▁adjustable
PRE
▁Sie
▁mol
▁thrust
▁Serum
▁foi
gest
▁TX
▁yoga
BM
▁crashes
▁caution
▁Brain
jun
▁texts
▁Formula
described
▁movable
▁surname
their
▁fled
▁ministers
▁suspicious
rak
usa
▁Oakland
▁reminder
▁lap
▁Cuba
▁greenhouse
▁Bed
voir
extend
▁attenuated
rous
Replace
cover
▁credibility
Sportspeople
▁Until
cade
health
▁Item
▁conductivity
Import
▁backend
think
Social
▁BJP
▁definitive
Headers
permission
▁docker
▁Blues
Visual
▁dia
▁germ
▁receipt
▁realm
HH
▁Turn
▁shake
▁medalists
▁lol
▁organism
ein
▁damn
▁riders
▁Patient
▁Falls
▁excel
▁lever
▁occasional
rules
▁mandate
▁cinema
▁Shu
▁lipoprotein
▁MMP
▁Das
▁affair
▁silica
pho
▁Clean
▁drone
▁clones
deficient
iser
Ge
▁encrypted
▁modifying
▁TP
▁undergraduate
▁bent
concat
Mesh
▁sympathetic
external
Enable
▁caring
▁wealthy
Calendar
▁transgender
Environment
▁purple
destroy
▁occupational
ifying
▁equals
SHA
▁calculating
oi
hara
patch
▁primer
▁bounded
rail
▁Sara
▁Mumbai
▁memorial
symbol
▁Abu
▁melt
▁consequently
▁polymorphisms
▁reductions
eren
▁CAN
dag
jet
AX
▁bp
▁Male
▁Mod
MRI
▁sized
Week
▁sudo
▁qualities
▁cathode
▁Transportation
▁jumping
▁workaround
own
▁tumours
▁Chemical
wb
Interval
aku
Identity
▁Bear
Fla
▁upgraded
▁cooked
▁heap
▁anime
▁NSA
▁unlimited
ages
▁pretreatment
▁gameplay
▁Settings
▁directive
▁RS
▁heroes
▁assumes
forms
▁MLS
▁DATA
mie
LI
▁licenses
▁robbery
virus
issa
HV
wc
▁dive
▁shade
iana
▁revenues
binary
adjusted
▁Archives
▁brackets
▁linkage
WA
offer
▁conscious
▁altogether
ske
▁homo
loading
▁Better
▁eliminating
could
▁Dance
▁PlayStation
assisted
▁vertically
▁journals
▁contaminated
surface
bing
GF
▁courtesy
▁economics
▁parte
▁kDa
sburg
CK
transfer
▁climbing
▁LCD
▁reversal
▁internally
▁uncomfortable
Was
written
▁rivers
ENV
dh
Visible
▁sac
▁adjuvant
aff
▁fancy
▁methylation
▁unfair
average
▁emerge
Connect
▁tourists
▁poet
rol
aya
February
▁Johnny
▁FALSE
▁angiography
▁paradigm
▁binds
▁Users
▁grace
▁contra
Everything
▁diminished
▁Various
▁alliance
▁saves
▁contractor
BOOL
median
▁Spark
Overall
Twitter
▁LDL
resolve
▁cult
▁sacrifice
reactive
histochemistry
▁auditory
tw
▁accidentally
▁alkaline
minded
IX
▁Petitioner
▁implanted
▁heterogeneity
▁embrace
SN
▁derive
logger
actions
▁Mis
▁purification
▁sphere
itter
Official
Basically
▁Pictures
sexual
▁Tell
Hint
▁Bee
▁MM
oke
feld
▁Literature
culture
▁literary
▁ext
Packet
▁welcomed
▁Rural
▁grep
▁parsing
▁cage
elem
▁imagination
▁Sum
Smith
sender
servlet
▁mp
ijms
▁Caribbean
dropdown
cus
IA
METHOD
Running
Through
▁Kal
▁dots
▁subscribers
▁Halloween
▁altitude
latest
lev
yyyy
Corp
Monday
▁Evidence
▁energies
▁reforms
▁Pack
DOCTYPE
▁secrets
TARGET
▁cleaned
▁Universe
locale
oku
▁Buffalo
▁SEC
upper
road
William
▁fra
▁antagonists
were
▁lowering
▁scattered
kwargs
▁trademark
▁diplomatic
hall
uka
Indian
▁Stan
▁thrombosis
enc
mond
▁tray
▁Spec
▁opacity
▁bean
▁Bla
thing
▁ether
still
▁ELISA
ignore
▁initiate
Club
must
▁verb
▁Peak
ih
Software
▁Greater
▁WordPress
▁Pol
▁beloved
setText
▁ro
▁Nine
▁Paper
▁Luc
▁Sure
▁automotive
▁remission
▁adolescent
▁lookup
▁verbal
udi
▁adviser
▁Boys
▁buyer
▁awkward
▁Technologies
Bill
▁portrait
▁athlete
▁GMT
▁cytochrome
nh
▁expatriate
▁deformation
Za
tbody
ORDER
tet
▁praised
aver
vision
▁selectivity
▁wax
▁jack
▁typeof
▁pelvic
teen
▁boring
▁imports
variant
mov
▁heterogeneous
▁disabilities
▁Rangers
▁Bernie
▁Orlando
dn
▁Neu
▁investor
▁advertisement
inal
Raw
▁Chat
▁tended
oxide
Je
relative
▁bridges
▁explosive
Saturday
antes
developer
▁inactive
Py
▁Half
▁licensing
PN
deal
pressure
▁rifle
▁Input
dex
▁Mau
review
▁Alice
▁capturing
Edge
▁consulting
▁Thai
bt
thanks
ril
NL
ike
▁artifacts
makers
GROUP
▁Connection
oga
▁GPU
Low
▁commissioned
Third
▁cr
▁headache
lr
hljs
Foundation
▁escaped
▁proving
▁Jeremy
atom
▁sued
▁beaten
chin
▁boats
▁needing
anda
▁Promise
▁hierarchy
▁depressive
▁differs
▁BSD
▁acetate
FX
directed
▁cigarette
kai
Bitmap
▁disposition
tam
Setting
▁protects
▁uintptr
▁FILE
▁Arsenal
▁offline
▁Authors
▁collar
▁malaria
eal
mul
▁vaginal
▁versatile
▁magical
Required
OT
▁dear
▁manifestations
MIT
▁phosphatase
▁successor
▁considers
▁proposition
▁merits
▁booking
▁rub
vue
▁Enjoy
▁Lei
Para
SSL
▁Legal
▁urge
▁Brothers
▁valley
▁messaging
▁HS
▁supervision
▁Nova
▁clue
▁Oak
Fill
▁Alternatively
▁Thi
▁Happy
vertical
serv
Serializer
▁horrible
▁manages
limited
▁Physical
PV
▁hemoglobin
Reuters
▁cents
▁MAX
▁Previous
▁ele
tabs
▁Often
▁jar
▁brightness
trigger
chr
▁approximate
Solution
logging
▁Construction
Moreover
▁compromised
▁debugging
ACT
▁chaos
▁Protein
▁floors
disk
▁toxin
plate
azi
▁Arg
▁heaven
Richard
▁Jam
▁Mg
▁Keith
▁staging
▁additive
▁bipolar
▁compensate
Cha
▁YOUR
Story
wt
▁Vermont
▁clips
▁witnessed
▁TC
▁grocery
▁mil
cis
ender
▁YES
▁aired
STATUS
▁adrenal
generate
stderr
▁WM
▁simplicity
▁Kirk
itt
▁saturation
▁Nazi
storm
emp
▁strengths
▁vegan
▁internationally
Self
▁dissection
Res
Endpoint
rine
▁Counsel
▁pray
shirt
▁homogeneous
▁sporting
por
▁guards
▁projections
medium
▁checkout
please
information
▁pile
NUMBER
yaml
▁DNS
▁interacting
▁Gram
▁tenure
vivo
coding
Loop
▁cores
▁melting
condition
ote
▁Properties
Console
REF
Desc
▁tick
▁Princess
▁polling
Controls
▁pockets
▁priest
Trans
LINK
▁splitting
▁Oliver
SON
guide
pull
CHAR
Contents
lint
▁scrap
▁geographic
▁fixes
▁headlines
▁Dictionary
▁intimate
▁Lesser
Updated
▁representations
▁generous
▁Pot
▁Nar
▁spherical
▁ladies
tha
▁Easy
▁Higher
uuid
▁arrives
kal
▁racism
▁polymerization
Australian
fusion
▁Rain
▁mast
camera
▁fifty
▁galaxy
▁cytotoxicity
nuclear
▁bay
Modal
▁Want
▁applicant
taking
ged
▁descriptions
▁datetime
▁transcripts
Contains
vip
Mike
▁chi
▁employs
▁corneal
▁terrain
START
▁Trial
▁unity
▁aneurysm
Valid
vas
▁ikke
▁supplementation
▁debtor
sville
Chi
▁Grey
▁Billy
▁Notice
▁yarn
▁Guy
Extensions
▁requesting
▁cope
▁Treasury
online
rh
▁stacked
Direction
Ext
▁Ob
Being
▁swelling
▁Extra
yne
lac
GI
▁cave
▁appellate
▁Madison
▁fond
▁deterioration
▁supplying
▁Fi
▁Kay
▁sir
▁props
esa
▁donate
▁Montana
▁battles
beat
▁Alpha
Expected
▁Springs
▁tires
Rep
ales
▁Apr
▁automation
▁dial
▁lumbar
▁pets
▁Upper
▁decomposition
uu
▁pu
▁Doppler
▁charm
▁RV
CU
Multiple
▁Yahoo
▁Either
▁Cash
Navigation
▁simulate
metal
hel
▁separating
▁Features
centric
▁Rogers
▁Industrial
▁lately
trade
▁computation
▁attraction
▁loci
Born
▁tensor
▁fights
▁deserves
AH
invalid
▁VIP
▁drawbacks
Border
▁aesthetic
▁waist
etic
▁Rice
▁disappear
▁mixtures
▁hop
▁Raw
▁Campaign
▁TH
▁electrostatic
Country
▁sisters
▁unilateral
▁Wil
▁clinicians
▁Soccer
▁fifteen
esi
▁traumatic
iden
▁drunk
skin
Ser
▁newborn
brain
ONE
Switch
▁Ap
▁surviving
▁toll
these
▁capsule
▁enhances
▁recreational
▁origins
does
▁specialists
comb
▁concentrate
▁teens
Env
▁Cer
▁visualization
▁Ri
▁aureus
▁Glen
Getting
▁inspire
▁plugins
▁drought
▁Ry
▁Parkinson
▁raid
▁populated
indexOf
Weight
▁tent
▁caspase
▁regulates
▁clinics
▁massage
Features
▁directories
▁SI
▁farming
▁kingdom
▁blockade
▁Edwards
▁Ren
▁Available
▁inhabitants
existing
▁Kids
MPL
▁Kenya
▁banner
▁countless
mapping
▁IRS
undefined
▁Capitol
▁helicopter
▁screws
endl
▁Unity
▁horizon
▁gates
▁capacitance
▁Members
ADD
Normal
▁Generation
▁Ottawa
RAM
▁invitation
▁ionic
▁actuator
▁friendship
▁Bird
gia
▁Metropolitan
BIT
complex
▁swim
environment
▁Barbara
tical
▁behave
▁retina
spark
▁Lock
▁obligations
fic
spor
▁suppliers
▁meantime
▁asymptomatic
selection
▁adjustments
▁mall
▁identifies
easy
▁hydrophobic
▁HO
▁factual
und
▁Operation
▁devastating
MAC
▁inhibiting
moto
functional
HI
dna
apps
▁desperate
▁affirmed
▁Horse
▁Ny
SOURCE
hai
▁currents
MSG
▁Touch
▁complain
▁Stra
▁customize
cyclic
▁scar
▁keywords
▁Production
Micro
▁Ly
▁nerves
▁camps
▁simplest
Transport
▁smartphones
▁Output
▁sometime
▁vintage
hs
▁boots
▁visually
▁spa
parameters
Sequence
Need
▁overweight
▁Perl
▁nuts
nx
▁customized
▁hypothesized
▁Mil
flash
kb
▁amplified
website
▁Suite
▁Movement
clk
▁blogs
▁mai
▁rotated
management
▁Woods
atus
▁clever
mag
colon
AGE
▁Device
▁larvae
▁Television
bean
▁poses
▁drafted
Dict
▁empirical
gue
▁Picture
▁sclerosis
Available
▁Mediterranean
obs
CON
▁Kumar
▁imprisonment
Span
members
▁stresses
▁GS
SV
marker
▁lengthy
▁Location
▁refund
personal
Fixed
uber
▁remedy
▁malicious
▁critic
▁RC
miss
adas
▁Sat
tine
▁browse
▁degeneration
▁definite
▁Joint
quer
▁adhere
▁Storage
▁celebrating
Drawing
Gal
▁Calendar
opts
igan
▁Birmingham
▁Floor
ces
▁travels
▁appealing
▁Molecular
Created
▁rope
▁parade
▁Host
▁Sel
▁porous
▁motorcycle
▁EA
▁planar
▁Cells
nit
▁gi
NEXT
mouse
▁Milan
LEN
▁GI
hum
▁chambers
▁nickel
▁touching
▁soundtrack
▁sus
actual
▁incision
gus
▁firmly
▁useless
▁Liberty
genesis
▁Branch
Spring
▁freezing
▁divisions
▁torture
Picture
▁finest
ois
▁Others
▁granting
tter
nonumber
isset
delay
sed
▁utilizes
▁Edinburgh
EV
▁enzymatic
▁Reed
▁crore
▁Complex
▁Nepal
▁Tigers
IMAGE
bie
ogenesis
▁Him
AN
▁bending
▁Pal
▁puzzle
RK
hart
MODULE
Wrap
▁cal
▁Creative
ree
▁bitter
▁corrupt
India
▁Doug
▁hello
▁acidic
▁marking
▁illumination
keyword
qt
cellular
▁jaw
tru
hoo
▁editors
▁sk
Pan
unk
textarea
▁allocate
▁mmHg
▁Sleep
▁Nat
District
omy
▁Batman
kv
▁reminded
▁overload
ass
▁smokers
▁merger
slide
▁offspring
iam
▁ROS
oop
sted
oe
aging
ame
ige
▁dr
▁etching
Plan
▁agrees
direct
ete
soc
▁struggles
▁siblings
Stat
▁obstacles
Remote
WC
▁insects
▁overexpression
▁shooter
uta
▁scalar
astro
▁ortho
▁cube
▁respected
▁clicks
▁fungal
▁Luis
▁pituitary
▁negligence
▁Ala
▁Grace
▁niche
▁Label
▁nutrient
TestCase
inger
FOR
Camera
▁cytoplasmic
▁Jennifer
▁elucidate
▁prev
Mart
FLAG
▁Election
▁harmonic
▁Mul
ographic
▁investigator
▁modular
▁substituted
▁Got
▁hospitalization
xb
▁observer
▁cd
▁glutathione
▁quantified
▁Events
▁scholars
▁COM
Sunday
▁symmetric
iza
▁Schools
▁Nas
▁dealer
MEM
▁mathematics
▁tragedy
▁TCP
▁politically
▁cab
▁ocular
▁lipids
▁Champion
▁Chamber
▁ensemble
provider
ej
▁Zero
▁tightly
▁edema
▁Rugby
Renderer
cine
▁Voice
▁Sr
▁sepsis
▁vicinity
Axis
iga
▁Broadway
Zero
▁resp
▁foil
repository
▁runners
▁Solutions
ann
LOCAL
▁monetary
▁slides
▁Fun
▁Style
▁Theory
aster
Invoke
concept
Vo
▁jquery
▁Tampa
Thomas
purpose
▁Racing
uniform
▁endorse
▁Sc
Jun
▁vent
mmer
▁Impact
▁retrospectively
▁downloading
▁justified
▁Session
▁Eight
▁autonomous
onic
Bus
▁Prevention
oxo
transport
OE
▁relaxed
▁entertaining
▁lips
rez
▁psychology
▁statue
▁Zi
▁LIKE
▁presentations
▁Kor
Jack
dirname
▁DT
▁spindle
vac
▁FF
onia
▁Dal
smart
▁numeric
▁valued
▁Columbus
▁Mir
▁tem
JP
▁painter
▁pursuing
▁euros
▁leaks
▁exc
▁Diamond
contract
▁Welcome
▁differed
▁confidential
Bottom
▁celebrity
him
▁squamous
▁mucosal
▁similarities
office
Bank
lut
▁Scientific
▁hypertensive
▁EL
▁pale
▁anatomical
▁gentle
▁Chu
▁historically
dst
▁denote
▁Personal
▁LE
held
Awards
▁chef
▁LH
▁presidency
▁Medicaid
▁inlet
▁VC
▁ICU
jen
every
rig
▁visitor
▁winding
▁displaced
tec
generator
▁Ras
kins
▁highlighting
mad
Cancel
Highlight
▁DP
▁citizenship
Dev
▁Enron
Reduce
django
Prop
▁Cover
▁particulate
validation
Rock
▁lethal
▁Kir
▁recycling
Stage
▁hike
▁Convert
▁additionally
due
▁mor
▁Screen
▁folded
▁protease
Score
▁Xi
▁geometric
kie
▁anytime
▁analytics
ssh
▁retreat
▁Pick
translation
gie
▁tours
aza
▁renewed
▁Rest
▁Agent
▁striker
▁Comments
▁Bros
ivo
▁Mason
oto
▁tv
▁workshops
▁titanium
▁Shanghai
▁Delta
Joe
▁Comment
vers
▁bolt
▁SN
▁unsafe
▁surgeons
▁django
▁clay
ungen
▁Git
▁refusing
▁overlapping
▁vir
▁hydrolysis
▁Berkeley
▁midfielder
▁Leon
Give
▁formatting
▁questioning
▁endemic
ATA
▁Gran
▁appealed
learn
▁costume
▁HCC
EG
▁scholarship
▁Sox
Sports
thy
Conn
▁doubled
runner
▁APPEALS
▁esophageal
iation
apa
SESSION
electric
pending
▁mag
▁thoracic
▁viscosity
▁rectangular
BER
TK
▁detained
Month
lov
▁fasting
▁owing
temperature
▁fl
▁Lanka
America
▁pandemic
science
▁infiltration
▁transferring
▁unacceptable
▁recession
Bob
▁Bloomberg
▁chase
▁constituents
▁Sy
lz
▁hippocampus
▁Pr
▁Jar
▁frustrated
lap
▁architectural
▁develops
East
▁passwords
Focus
expect
cit
▁Blu
woman
innerHTML
▁fr
▁Carol
Tri
▁quantify
▁EM
FIELD
repo
Er
▁Match
▁Planet
▁benchmark
▁hr
▁charter
Begin
amazon
cle
▁cooperative
alkyl
CLASS
▁honour
Cross
▁remotely
▁ghost
Proto
▁Eve
Es
▁PK
▁brains
▁Kam
xff
Never
Asked
▁Superior
▁Panel
▁Bluetooth
▁scary
Graphics
▁curved
▁depicted
▁Hispanic
oa
▁molding
stro
RUN
▁Legislature
Origin
▁sprite
▁Representative
Conclusion
▁Michelle
▁WHEN
Bu
▁murdered
▁railroad
▁defended
kas
▁openly
▁Hudson
▁glutamate
lift
ische
Scan
holder
▁mammals
▁socio
▁Neil
▁CONTRIBUTORS
▁Ground
▁resignation
another
▁convictions
▁nM
projects
▁reboot
▁auth
▁Communist
▁Statistical
▁rupture
▁firearms
tant
▁sword
Tuesday
song
▁Victor
▁journalism
▁hood
▁Circle
▁translocation
Points
fw
▁fade
▁Harper
▁chairs
Images
▁tailored
expr
▁jewelry
▁nutrients
KB
▁pumps
▁quasi
encoding
wifi
VAR
▁annotation
fel
ural
OB
cess
▁auxiliary
▁screenshot
▁confirms
Redirect
named
▁referral
NV
kon
▁sheriff
▁proprietary
▁instructed
TG
training
▁Defendants
▁footprint
pound
▁licence
▁hammer
▁hose
labeled
features
▁sua
tors
Submitted
▁inclusive
▁Idaho
CAT
▁Margaret
▁Nancy
▁perspectives
▁earthquake
▁awful
▁removes
▁densities
▁seq
messages
▁worthy
▁Wu
awa
▁sham
▁connectors
Desktop
throw
cancel
▁Pink
▁Phillips
pie
shore
elements
kle
cons
Discussion
abad
TRUE
Picker
▁electrolyte
▁mentions
xyz
Static
▁correlates
Everyone
▁irrelevant
INDEX
▁conceptual
▁recognised
▁crashed
▁interferon
▁Ye
▁Electro
sect
nin
▁Gill
Ke
ImageView
▁upward
▁cooler
▁basket
▁presently
hook
▁Laura
▁chrome
alter
▁inevitable
sty
▁specialty
▁Bat
▁Portuguese
▁uniformly
bearing
FUNCTION
development
HE
▁gateway
▁HC
Har
▁achievements
▁applicants
▁uncle
▁Safe
Published
▁Along
▁Dennis
LinearLayout
▁vesicles
▁stiffness
▁impacted
▁Score
tern
▁tricky
▁Mega
regex
▁openings
▁inserting
▁IO
camp
▁workout
bur
▁subsets
▁mate
WIN
▁IDE
pose
▁concomitant
▁Jefferson
▁Terms
▁sampled
▁onClick
▁diffraction
peptide
▁Por
▁Planning
▁Especially
ume
compiler
▁Meeting
Office
▁fs
▁Procedure
▁homeostasis
▁ci
getString
▁leaked
Sch
▁wars
▁kilometers
▁osteo
AU
▁wrestling
League
MASK
▁Danny
dle
▁FIFA
RW
Usage
invasive
▁fe
▁knocked
▁Ay
▁diaphragm
▁ta
▁supplier
▁Mich
▁motors
Fast
hk
lea
hibernate
▁invoked
▁Blake
▁billions
▁ambitious
▁Late
▁gestation
WR
▁iterator
uf
▁designation
cou
▁superficial
▁remodeling
▁Wave
▁subscriber
▁Against
mor
▁underway
▁McCain
mouth
▁Tex
▁cutaneous
Tags
▁WP
▁authorization
mono
▁transforming
▁reliably
▁pleasant
▁finishes
▁Nano
lane
Thursday
▁disrupt
radi
▁carcinomas
rey
▁showcase
modified
▁Buck
▁clamp
▁refreshing
▁broadband
▁interim
▁careers
Symbol
nation
▁dam
bia
Wednesday
▁grouped
Scalar
interval
▁foregoing
▁webpage
▁ester
Pay
▁Harrison
sman
▁eco
norm
▁pros
▁Harvey
▁Ter
▁counseling
▁coordinated
heim
Assert
▁sooner
tig
▁Package
▁Tyler
▁Hero
music
▁quarters
▁voor
▁exon
▁pulp
▁PCI
▁Norman
▁graphs
▁darkness
▁pound
▁Sk
aja
▁conf
▁continually
Vertex
Ray
▁pelo
▁Glasgow
▁housed
▁lanes
egg
▁latent
rg
oda
lua
▁Course
▁stainless
▁fame
▁Summary
KY
xp
▁tricks
▁flush
▁heparin
economic
▁unveiled
▁toggle
Machine
▁midnight
commerce
▁GPL
▁PF
▁shutter
dz
emi
Validator
▁undergone
▁Census
▁convergence
BOOST
sembl
tuple
Quick
Pe
▁overlay
▁Created
▁dataframe
▁advocacy
▁Delaware
asi
eff
▁Ghost
cont
▁Colombia
▁Kyle
▁flesh
suit
▁Sweet
▁Cincinnati
▁promotional
Compile
character
▁implementations
▁Jazz
▁Matrix
▁absorb
sock
▁Chart
▁dim
▁garlic
oral
▁cor
ads
glass
Linux
▁originated
▁communicating
▁constituency
▁certificates
▁Ji
atomic
▁excision
▁beats
▁guilt
▁asserted
▁Roll
▁ingredient
▁exceeds
▁Vladimir
▁anatomy
▁Bath
▁Trek
Horizontal
▁emergence
▁Angular
▁Camera
▁interrupt
▁rivals
▁seller
▁cancellation
▁Walk
▁pathogenic
Scene
natural
▁pools
Bbb
▁topology
European
disc
worker
zar
▁Broad
▁collapsed
▁ninth
▁conduction
▁DEFAULT
jj
eve
▁Thor
▁biosynthesis
▁bump
pmatrix
▁oppose
▁converts
▁rip
brook
▁directing
▁youngest
▁waited
motor
ischen
▁Kill
Working
▁Clerk
boss
Argument
▁LD
▁PBS
Addr
▁cousin
dInstanceState
sat
▁quantification
▁credited
Mapper
▁Workers
Education
▁serotonin
▁longtime
▁packs
Calc
bone
▁Operations
▁experimentally
ways
OG
Export
ipad
▁aiming
▁uterine
▁replica
ines
▁affidavit
TZ
dash
wen
▁monitors
gender
Accept
▁Statistics
Username
▁nationally
▁biomass
irq
▁flooding
▁Sale
lop
▁Female
▁assertion
▁prisoner
nonatomic
▁sci
▁Debug
Italian
▁Afghan
▁brutal
Geography
▁NYC
eli
▁Dubai
xo
▁broadly
acetyl
▁Prix
▁Potter
▁accessory
▁Butler
tta
sensors
▁LG
Speed
▁sponsor
▁expired
▁Chuck
▁feat
ovich
▁subunits
forall
▁incentives
het
ule
▁carriage
▁sulfur
chal
urn
▁Kitchen
aq
▁elif
Obviously
▁Amsterdam
▁romance
pole
▁Saints
▁WAY
▁poem
▁Chen
▁neighborhoods
▁shoulders
fair
▁desc
▁algebra
▁Leave
▁dec
▁confirming
▁elbow
Kernel
aceae
Src
▁PER
vent
▁flies
Execution
▁dumb
oro
WF
▁EV
▁Cool
Ph
Install
▁WS
Elements
expand
sonic
xing
▁insect
Learn
▁indigenous
▁introduces
▁delicate
▁evoked
▁SV
Research
▁cop
▁cascade
llvm
▁rises
▁PB
▁touchdown
▁indirectly
▁knockout
▁patrol
▁drawback
jay
▁Billboard
▁appreciation
Components
solid
pac
styles
extract
▁Flight
▁Row
Primary
Segment
▁metro
▁instanceof
▁simplify
London
▁suction
▁criterion
▁pigment
cnt
▁Ref
▁Practice
rom
umi
▁organised
▁BB
▁Component
▁eleven
▁perceptions
▁kits
▁dock
▁jam
▁mentally
▁brave
▁browsing
▁accelerate
Starting
▁inject
▁appliances
▁Pur
▁Fourier
numeric
▁pathogen
▁parasite
Say
▁Arc
▁Choice
oria
CLK
▁ajax
▁relying
ANT
▁teammates
▁irregular
▁grabbed
▁Looking
▁masks
▁Appellee
▁bounce
omi
▁Ridge
agh
DataFrame
aine
▁workflow
▁Spa
Der
▁Tamil
▁MK
TextBox
▁Lan
▁Boost
▁inorganic
Validate
▁cystic
payment
▁procedural
transferase
▁PH
▁Django
▁ventricle
flight
▁Andre
▁SK
▁cassette
Inside
hospital
▁mimic
lett
▁posed
▁gro
▁submitting
tral
cing
▁Platform
icular
▁rebuild
DMA
▁memorable
ql
▁calories
writing
lol
dL
rina
▁ladder
tk
▁gig
▁warn
▁ti
▁werden
dies
Court
Agent
Buildings
▁phenotypes
▁Tools
Bool
▁diagnoses
cad
WRITE
correct
▁Flow
▁Safari
▁Ky
owski
LOAD
▁palm
▁genotypes
▁announcing
▁catching
fy
▁registers
▁intentions
▁illegally
▁Bone
▁modal
sf
wy
▁hints
▁ram
▁courage
tb
▁Reid
died
▁dough
▁modulated
▁drift
▁lemon
ars
▁nude
Mod
Gi
rent
▁magnesium
Browser
HPP
▁tolerated
▁humidity
▁offerings
ucci
Large
▁APIs
▁recruiting
Fox
▁Mountains
▁CK
▁fungi
▁reign
▁treats
RG
ifies
RN
receptor
▁conveyor
▁galaxies
▁immunoglobulin
▁CG
▁Weather
▁Pad
▁nevertheless
▁ultrasonic
closed
▁OC
▁etiology
rav
TL
▁wondered
Zone
▁practicing
▁Yang
▁Sierra
fil
dell
▁Must
kat
▁inheritance
▁ecological
pixel
▁meanwhile
▁fistula
Assembly
▁diagonal
▁BMW
Topic
nate
▁sweep
▁CNS
▁Statement
▁IEEE
▁curb
▁ordinance
▁Vision
RV
vie
▁Surface
Marker
digit
gems
▁marry
▁rig
▁Nashville
▁Dad
▁filmed
▁flew
▁topical
COUNT
▁Kas
Originally
noise
▁Dynamic
ald
▁ward
▁Inside
Anyway
jdbc
▁personalized
▁acc
▁laying
ener
kn
▁blamed
connected
▁alteration
▁outlook
▁beside
▁ui
▁backwards
Par
▁Clinic
hero
▁durability
yon
legal
▁observational
▁tertiary
▁lobe
▁stakeholders
sphere
stick
▁embodiments
▁singular
▁attacker
▁autism
inate
▁hospitalized
▁snapshot
▁modulate
▁Cur
▁curvature
Snapshot
▁Mak
AMP
▁gambling
googleapis
atta
amento
ftp
▁Supp
▁emphasized
▁exogenous
▁amend
gaz
▁constituted
▁inducing
▁foul
▁evolving
▁fixture
▁Lead
Between
Sound
▁lymphocyte
agi
navigation
utter
▁synchronization
▁taxpayers
▁forty
▁welding
▁Forty
▁refusal
dk
▁competent
▁knees
▁solder
▁clouds
▁grams
Mor
bri
Attr
▁Soon
▁cues
▁Making
▁programmed
▁Tele
▁tuning
KI
▁dummy
Sam
▁Problem
▁candy
▁counterpart
▁inbox
attack
▁gum
▁Hydro
▁Stein
▁unsuccessful
▁stabilization
▁proves
Problem
▁lactate
▁avec
urs
added
Review
▁grafts
▁honored
▁Move
ece
Gl
Actually
▁CON
functions
▁Pain
jack
▁satisfies
Frank
▁replicate
isch
▁noble
▁nest
FILES
augh
▁GitHub
▁Bou
▁utilities
Ten
patient
override
Poly
bru
▁Transfer
▁halt
▁Diet
▁Jul
▁Maps
GN
▁breed
pus
therapy
▁delighted
▁offenses
plant
▁Strong
▁dB
▁organizing
cert
morphic
▁Stream
▁Beyond
Annotation
▁locks
male
▁spill
▁separator
▁Len
▁kinda
dispatch
▁rushed
▁Beta
▁Query
▁electrochemical
▁signalling
▁neat
▁Pete
▁datasets
▁outpatient
▁answering
▁biopsies
▁Plasma
▁malware
enne
▁Option
▁guarantees
▁subtypes
▁ke
Rest
▁photon
▁disturbance
PIN
▁Anyone
ember
▁Comp
reduce
addEventListener
▁ONE
KA
▁hungry
izable
xd
▁queen
▁Question
▁administrators
▁scrutiny
Validation
MN
▁armor
highlight
▁abolished
▁guessing
▁harvest
▁glance
▁sind
Errorf
Transfer
▁dropdown
ometry
alloc
▁lecture
liga
▁Commercial
rill
▁disks
▁spike
NK
hil
girl
▁cum
Article
▁Simply
▁graduation
▁refugee
▁Bru
zing
▁filming
▁Belgian
▁anemia
ain
▁TM
DAC
middle
▁Usually
hereinafter
▁Theater
OA
EXPORT
FG
▁briefing
enza
gold
▁Episode
Wi
▁sciences
amba
▁Growth
▁propaganda
Exit
▁Thr
national
▁Nathan
jp
▁broadcasting
▁stir
▁Mus
▁sentiment
▁trailing
▁shocking
▁GABA
▁Jake
VD
▁Sym
arguments
activate
▁misleading
▁vegetable
▁elect
▁phenotypic
▁conferences
angi
Gr
effects
carbon
▁morphine
fg
Fa
▁percutaneous
Excel
tell
Timestamp
▁malignancy
▁spinning
▁Significant
▁Masters
▁FCC
▁Bro
maybe
▁traces
▁Corn
▁dest
dw
▁torn
Steve
▁formulations
▁discomfort
▁Virgin
▁correspondence
Patent
▁ir
▁Easter
▁Pakistani
▁flavors
▁reuse
▁Mine
▁Mari
▁sandwich
eller
▁taxpayer
▁sweat
▁inclined
pha
▁disturbing
CTRL
▁pilots
▁uniquely
▁preventive
▁trio
▁governance
▁repetitive
▁surveyed
▁aorta
threatening
▁Secondary
▁publishers
zel
▁Dia
▁violate
morph
park
▁snake
▁WA
erne
▁systematically
▁listeners
▁strap
▁combo
jer
▁hay
▁stiff
▁rankings
eme
iron
▁concludes
Within
▁fork
IG
▁facebook
▁Result
▁fare
▁Lost
▁Vel
▁stretching
jpeg
producing
▁skeleton
▁Commander
▁salts
statement
Receive
binom
▁Gear
mah
chu
▁teenager
▁Peru
Owner
Priority
▁feeds
▁Foster
rang
▁Beat
▁exponential
▁guitarist
▁termed
▁advisor
▁corrosion
▁integrating
▁contacting
NOTE
CPP
▁lacked
Personnel
▁weigh
▁Tool
▁scheduling
▁beads
CNN
ancy
▁renowned
UT
▁lining
hdr
▁shine
▁sensation
Seq
Anchor
getValue
software
ils
hyper
ound
▁Comm
▁Hungary
▁invisible
▁stepping
▁parliamentary
▁suck
▁MAP
▁Tru
▁humanitarian
▁fertility
▁sells
▁fool
▁businessman
▁Kom
▁FB
▁tendon
▁Font
▁pretend
lex
▁inefficient
▁Airlines
▁Hindu
Christian
▁Adobe
▁CAD
▁terminate
▁merchandise
▁rgba
▁Normal
escape
▁Brooks
categories
▁causal
▁Welsh
▁lang
▁Veterans
LN
▁OH
▁missiles
▁convey
▁transduction
▁assignments
▁supposedly
▁wi
▁microphone
▁arbitration
syl
▁eclipse
mpl
▁retrieval
Geometry
▁decree
animation
▁Obviously
▁advisory
Matt
ologic
▁tier
▁squares
idiom
▁Break
mill
responsive
abstract
Little
▁crying
School
▁pylori
stackoverflow
▁entirety
▁supplements
▁Parent
Formatter
▁Gay
▁Zoo
▁graphene
▁resize
▁hung
Variant
▁muscular
▁REST
lus
▁Poll
VT
ului
flat
aaa
▁nicotine
Authentication
▁backward
Pen
slider
qi
▁Resort
▁bell
cx
▁zoo
▁Wait
Alpha
▁Electronic
linger
▁oxidase
DU
▁Answer
choose
▁adenosine
▁trails
Au
▁Pentagon
iq
▁ignoring
▁plural
▁Rachel
▁unfortunate
▁Physics
▁frustrating
▁Module
▁Vor
Comp
▁Same
▁weaker
ugh
enna
▁engineered
▁Copy
▁wie
physiological
▁Simpson
▁Kashmir
bill
dam
▁kon
▁misconduct
▁phospho
rain
▁spy
tica
▁oversight
▁pastor
▁grammar
▁commissioner
▁agonists
Ask
▁Rosa
atur
▁spouse
asa
Tu
wn
▁proposes
ott
▁thrilled
ashi
EXT
▁Chan
▁peritoneal
▁emphasize
▁recovering
▁Reviews
WH
zan
▁Addiction
heart
Diff
▁objection
polar
▁phosphor
▁refractory
▁prey
▁OA
▁coup
▁proportions
▁Brussels
▁vibrant
▁Hum
▁northeast
▁dice
▁CSF
emitting
▁sticks
agan
▁Bol
parallel
▁Bears
▁calc
▁disappointing
uria
▁apoptotic
Blob
opathy
▁horn
▁eventual
RY
BG
reverse
Found
▁improper
▁platelets
▁Shell
▁colleague
▁criminals
▁lined
▁broker
gpu
balance
asta
Ri
▁Material
▁Warriors
▁tutorials
odi
gress
▁bonded
pn
graphy
anga
ichi
major
ered
▁axes
▁alleles
▁observers
dart
▁enclosed
▁defenders
emic
▁Bennett
▁pra
▁VII
Term
▁atherosclerosis
▁Coalition
▁orthogonal
▁testify
▁favorites
▁grandfather
▁admissions
▁Gang
mur
▁pumping
▁Used
EO
▁Bryan
identifier
mite
▁Vir
dns
cot
eon
▁redundant
Daniel
weighted
▁contractors
▁apartments
▁Imperial
iano
gated
mba
mutex
▁incentive
Ju
idade
qa
▁Garcia
▁persistence
OutputStream
▁Mol
kill
▁mut
▁Hey
▁Track
ath
tions
▁glands
▁Players
UA
cookie
▁warehouse
credit
▁shortage
▁tilt
TRA
▁traditions
▁mediate
▁TLR
▁township
▁Perfect
▁Elementary
▁determinants
▁loses
▁thrive
▁heal
▁Baron
Added
ascii
ensuremath
▁GR
▁trajectory
▁canine
▁touches
▁glue
ulo
▁Worth
▁evolve
▁adipose
materials
▁HDL
Batch
▁Gabriel
pent
▁weighted
Subscribe
FONT
▁Lynch
▁psycho
▁shy
▁opts
▁Wine
▁cosmetic
▁Victorian
Registry
cept
▁waiver
este
Want
tcp
eira
neutral
▁fuels
▁Sample
▁stems
▁Counter
MAKE
selective
▁cardio
Notice
▁bikes
anta
▁coded
▁Month
ving
▁Info
▁tiles
▁Json
King
▁wx
▁pistol
▁grasp
▁pdf
▁Whit
▁potato
hab
▁Skin
▁subcutaneous
gua
▁chromosomes
▁biased
▁helmet
greg
hom
omer
▁initialization
▁Adult
zon
▁simulator
▁rides
▁Guinea
▁Paulo
Binary
▁Brandon
▁sb
fragment
▁understands
dur
DOM
▁subsidiary
Chinese
▁mailing
▁beverage
sport
atum
mun
▁repeating
express
▁belonged
▁gasoline
▁clearing
generic
▁AMP
▁guinea
▁Patriots
USD
Correct
▁Pine
▁arrests
▁bulb
▁generators
Charles
ching
government
UR
▁spacecraft
▁senators
Lee
ANS
▁grandmother
▁Pages
▁patience
Compare
War
Fo
plist
▁crap
▁Milwaukee
▁Choose
▁Structure
▁Summit
▁Din
▁teenage
hua
▁furnace
hc
slot
▁Karen
Bad
▁lumen
▁Soul
▁hippocampal
scene
Tools
▁Arctic
placeholder
igh
vey
▁Yellow
labels
▁NHS
exchange
▁subtype
▁subclass
▁shore
Upon
▁influencing
▁grains
▁Bradley
molecules
Gold
▁intentionally
Expr
▁encounters
Il
Five
▁Chase
▁catalysts
AndroidRuntime
bes
epi
sse
▁FOX
ctl
bling
▁seating
▁denotes
▁persist
▁periodically
ionic
▁recruit
wei
▁negotiate
▁Zo
Authorization
▁dx
▁Relations
Material
quant
Villages
▁blown
accept
▁accessibility
▁methanol
▁alveolar
sizing
▁exposing
▁mob
▁Jet
▁Brady
▁myo
ANCE
▁tribe
Schedule
▁ML
▁sal
nv
gang
▁refined
▁dash
▁priced
ded
mv
▁Depending
ciones
▁EF
▁emit
▁resistor
▁undermine
Canada
▁vague
uric
Shader
enko
ART
fect
NOS
WP
▁csv
▁Pattern
stdio
ith
inus
▁urea
▁retire
uer
▁fibre
▁educate
▁Always
▁motility
Cmd
hub
▁rumors
▁Athletic
rik
▁tragic
▁lu
▁Ask
▁silicone
ost
fine
▁constructs
Changes
▁backgrounds
▁cortisol
▁Less
▁indicative
▁disturbances
▁bun
Arguments
▁Shaw
▁Initiative
▁Hans
established
▁tensions
Vert
subseteq
neur
▁IOException
▁initialized
▁Sil
dagger
▁PUBLIC
▁nach
▁Immigration
▁enrichment
▁Tai
▁loyalty
▁innate
▁accusations
otomy
▁predominant
▁reflective
ody
▁ligament
▁unpublished
coated
▁Romania
▁geographical
▁descriptive
guid
▁chromatin
▁atypical
seconds
▁incumbent
▁saturated
▁alleges
▁inspect
dai
▁synchronized
▁comma
▁declaring
▁cease
ako
▁packaged
▁endorsement
▁WI
edi
Refresh
▁declining
rgb
cular
rap
▁Jen
sive
▁Partners
▁Archive
▁Hash
▁Wells
Internet
Volume
Moths
Cluster
▁immigrant
▁graduates
jon
▁liberty
osh
▁activating
Its
gcc
▁retailer
▁decorated
immer
▁Pl
trip
▁veins
▁virtue
▁Ker
▁differing
ush
▁Bin
▁reacted
▁aerial
▁Bobby
vv
▁imagery
Hand
DV
▁SDL
▁continuity
enhanced
▁Consumer
Ala
▁supporter
▁Lou
Chat
▁decode
rog
▁beautifully
▁Condition
▁woods
▁informal
▁Toyota
icia
▁Than
▁Holland
▁hostile
▁stellar
▁bizarre
▁explores
Direct
▁couch
▁steroids
▁Artist
cop
▁Lebanon
▁angiotensin
mir
sense
Pane
gpio
▁chemo
▁deliberately
rays
▁booked
▁EE
thro
ifer
▁freshman
DECLARE
Geo
▁Jenkins
Drop
▁Housing
aar
Assuming
▁adventures
acid
▁examines
▁Pac
▁digestion
▁Bri
GD
▁diastolic
▁Climate
physical
▁sw
ias
Sir
▁doubles
beans
RGB
▁privately
oko
BV
▁advancing
▁apparatuses
HW
▁Southeast
district
▁PRO
DOT
▁limbs
tum
compare
▁fundraising
nth
▁gotta
peak
Che
unreadable
delegate
rz
▁pat
▁lawn
▁Bass
▁enriched
▁BS
▁glory
bay
▁prenatal
▁breakthrough
▁HOLDERS
▁Kai
▁cytometry
stad
▁Legislative
examples
▁deficient
▁Defence
▁bend
bh
saving
dimen
orientation
flush
▁throughput
▁creatinine
Condition
▁Boeing
▁Wo
Unless
▁oligo
▁Mn
sko
optic
▁furnished
▁usefulness
▁Pel
picture
Van
Sal
▁Spider
▁PCB
unt
▁SUV
azione
▁Orchestra
▁likewise
▁TE
▁sheath
▁gestational
▁merchant
raj
▁obstructive
▁usable
▁neglect
Again
▁Eagle
Adding
▁sie
horizontal
▁guiding
▁Raman
▁Wing
ListView
▁attendees
Oct
▁Palestinians
▁admits
▁wrapping
UE
▁EEG
▁convincing
▁attractions
gradient
Por
▁strive
failed
KS
CAM
▁neuron
bian
▁cAMP
nier
workers
▁Cabinet
Throw
▁schedules
eux
▁pedal
▁kills
▁Sto
ult
Prime
yang
PY
▁hex
▁encourages
Archive
▁Bot
▁mating
▁territories
▁harness
Continue
manual
▁MW
▁wit
▁dude
changing
know
Roman
▁Fer
▁optimistic
▁pregnancies
til
Messages
elia
Student
▁invented
▁Ran
▁repeal
▁Docker
▁remarkably
MU
azure
Actions
▁moth
Signature
cie
▁manga
▁Column
focused
Land
▁HB
rust
▁Writing
MK
ear
▁Reports
great
▁pertinent
▁lambda
funded
▁wastewater
BLOCK
▁Bug
▁stub
▁Bristol
▁grouping
ABLE
ether
▁Syn
▁Rai
▁lobby
▁inspiring
Gar
Runner
▁excluding
bag
▁interrupted
always
ced
▁reproduced
Nu
alla
▁subgroups
▁Drop
▁partnerships
Ignore
▁recombination
▁Developer
▁Titan
▁versa
vik
▁contour
album
Unlike
▁mercury
▁platinum
▁heater
underline
▁opener
gray
▁Interior
▁laboratories
▁Initial
▁Carlo
▁Emperor
▁Qui
▁headline
▁Tam
tale
▁epidemiological
Scott
▁Baptist
PET
▁periphery
▁Montgomery
▁dashboard
cil
▁playback
▁Rel
▁SERVICES
▁destinations
▁precipitation
nice
▁tracked
inae
▁pancreas
tetra
▁Northwest
PASS
▁Evan
FLAGS
Hz
citing
Board
▁alerts
▁monkeys
▁Average
▁hypotheses
Washington
▁inactivation
▁reminds
EOF
stable
MOD
▁pero
▁compares
▁Rap
▁Brit
▁populate
Amazon
▁unsure
▁Living
rian
Miss
phe
dg
▁popup
▁regimens
Yesterday
▁diagnose
▁inherit
▁convex
▁gesture
▁peroxide
agg
Pop
hang
neu
▁Hughes
WK
stuff
▁preserving
weak
▁beaches
Tell
▁motif
▁Palmer
valent
▁ejection
rv
▁Mai
unknown
Mass
pas
▁farmer
▁bootstrap
▁ole
▁landmark
▁diarrhea
hack
▁complaining
▁hopeful
▁Wildlife
selling
zie
▁emp
NU
▁Agriculture
▁claimant
▁treasure
▁rhetoric
OBJECT
Dear
▁receivers
Nov
trophic
▁avail
Government
▁shuttle
sell
▁unused
ovo
▁arguably
ugu
▁crystalline
ape
▁Aero
▁colonies
▁Alt
▁societies
▁enrollment
▁pork
▁aboard
▁unaware
IOException
▁gently
ingham
▁ba
usually
▁Gate
lists
▁bro
demand
▁delegates
▁specifying
▁tubing
Tick
undef
anza
Tile
transaction
▁rebounds
gap
▁coatings
▁upgrades
▁manifold
▁Berg
▁tandem
▁analogue
▁Jamie
▁Bas
▁offshore
igue
▁attenuation
▁ultraviolet
Visitor
▁sam
▁pal
▁expenditure
▁checkbox
▁Crime
▁withdrawn
▁neighbourhood
ager
▁ribbon
▁mitigate
RX
▁accountable
redirect
matches
▁wt
▁excellence
▁salad
▁colorful
▁sticking
▁Basically
▁pens
▁Ah
▁WWE
Alias
▁Wallace
▁Rodriguez
▁Leg
AAA
Various
▁Ski
▁forensic
▁suffers
▁Sandy
heading
duct
▁Political
▁deceased
aco
▁Guidelines
WARNING
▁cpu
lysis
Merge
crypto
Exp
▁rectal
▁torch
▁recognizes
▁CDC
▁bang
▁ACTION
Male
▁desires
macro
▁Zen
VH
▁Sessions
Season
▁Really
▁militants
▁chassis
uli
▁breathe
fileID
notify
▁Vincent
FORMAT
▁flange
▁Beau
igi
▁imbalance
▁litter
▁Vienna
▁thereto
▁inmates
▁commune
▁tee
▁Demo
▁Taliban
▁Hon
▁Former
acy
▁supplemented
iger
▁analyse
▁Newcastle
▁Sad
▁unavailable
▁cubic
▁dividing
digital
▁monkey
dol
▁Libya
money
volv
Constants
▁erosion
▁invariant
▁planted
▁elevator
future
thin
vb
▁Makeup
Mouse
XY
leading
aron
▁Attack
wang
lookup
▁androgen
▁Soft
▁alcoholic
disp
eration
▁aggression
▁phrases
▁Almost
▁launches
▁Arabic
▁profiling
journal
▁HER
prepare
▁transducer
▁sunlight
moving
fact
▁Loading
▁Calif
Slice
▁chapters
▁ACE
eda
▁incorrectly
▁Globe
Errors
Management
▁endocrine
▁salmon
▁gardens
esp
tick
DK
▁commerce
▁SU
▁Eddie
▁rods
▁radicals
freq
cgi
▁potatoes
▁Ak
peer
▁Functional
▁Options
cri
▁alternating
▁dilution
▁conservatives
today
bmatrix
▁sustainability
▁shrink
Fetch
▁ot
drug
xia
▁Bha
ulin
come
mesh
tens
▁premise
Locale
getInstance
Production
loo
▁delegation
▁anticipate
Department
▁realise
▁dimensional
▁blanket
▁intracranial
consuming
ARG
psy
▁asserts
▁economies
Cookie
▁discs
▁initWith
▁gram
yk
oracle
▁rapper
lle
▁Prof
▁holy
▁jokes
▁watches
▁traction
▁judged
▁Pierre
lead
▁circumference
▁medicines
ssa
▁Uri
France
▁extinction
▁migrate
parts
▁smoothly
▁weighing
nte
▁Julian
IVE
▁entrepreneurs
mash
UB
▁Experimental
▁twisted
▁linux
▁pencil
subscribe
▁digest
ratio
▁anomalies
▁NIH
▁Harbor
▁aspiration
▁transfected
▁defaults
▁prima
▁prizes
ition
▁npm
▁Stay
▁privileges
Same
▁Helen
▁historian
hours
▁Parks
Reflection
▁sheer
▁predecessor
union
▁Applications
▁activator
▁posture
HM
▁Graph
TI
Brown
▁mph
gam
roy
Besides
eric
▁informative
▁Spencer
ethylene
▁Scha
▁sont
▁Pic
SDK
Depth
Lines
▁NOW
mf
▁remand
vars
▁FS
Chain
▁Thanksgiving
erated
▁wasted
▁Cricket
rist
▁unaffected
▁Connect
jin
IDE
▁mum
▁modalities
▁illnesses
▁Bachelor
▁slim
reason
▁rectangle
sharing
caption
▁Hurricane
▁IU
traits
copyright
▁Lett
thi
Alert
▁kiss
▁averaging
translate
▁quietly
▁cooperate
JC
▁Matter
▁frameworks
nio
▁Rush
▁Astro
metry
▁liner
odor
▁stimulating
▁starch
▁Quin
identity
Nodes
▁destroying
need
cg
▁continent
Tx
loe
▁violating
below
▁Qt
usage
▁planets
▁splash
▁Loop
VIEW
▁Bang
DQ
VAL
▁Lloyd
▁insured
▁GROUP
▁minerals
Los
▁Newton
HO
▁mirrors
KK
▁carbohydrate
emphasis
▁illustration
▁ol
▁clash
secure
collect
▁observing
MX
▁Grove
▁scaled
▁Fur
▁prayers
▁conflicting
▁willingness
▁instructor
▁pore
▁Minor
▁Dame
▁Inn
iot
▁KO
asio
▁gloves
▁Weekly
▁Shadow
▁voltages
▁Depression
▁Honda
▁blessed
▁spotlight
SERVICE
▁shunt
Rec
addClass
Shell
▁Hub
kur
▁ppm
▁genetics
ulating
lng
uga
▁rheumatoid
OnClickListener
▁Yemen
acting
▁resultant
▁Kha
Sc
apo
▁metabolite
Martin
hana
Wow
Central
yama
▁macrophage
playing
▁Gates
▁northwest
virtual
Observer
▁heroin
DAY
indexPath
▁eligibility
Room
ancing
▁Wire
declare
▁enthusiasm
▁issuing
▁Publishing
▁Cel
▁BT
finder
rpc
MW
▁Crypto
▁balancing
▁COUNT
OFF
▁rushing
▁Merc
pear
Hard
tested
▁Basketball
▁angiogenesis
SEC
▁Ellis
AZ
▁Issue
▁tan
Stats
▁Communication
Servlet
gf
▁cops
▁Naval
Safe
daily
▁Likewise
▁priv
▁Comics
▁DL
▁dei
▁sch
▁Domain
CALL
Failure
▁Europa
▁Tat
▁Reddit
▁enjoyable
▁backbone
▁SPECIAL
▁Lucas
Delay
definition
heat
▁associates
▁nucleic
ved
▁pivotal
ubi
▁Mercedes
▁refractive
▁conformation
▁Driver
▁EVEN
resize
▁Frederick
▁coconut
hor
udo
▁questionnaires
rails
▁forma
Visit
▁ramp
▁provinces
▁delight
▁Manual
▁Jets
DEVICE
▁Restaurant
▁albeit
▁financially
ija
▁municipalities
▁genius
▁Delete
▁Dom
hz
▁symbolic
wx
▁Nan
absolute
zzle
ROM
▁glimpse
osi
sports
▁caregivers
▁Latino
▁teenagers
▁Athletics
documentclass
backed
▁Gre
▁Marcus
guided
▁canonical
Alignment
▁CRC
magic
along
▁endl
▁VPN
▁ssh
Food
▁Beer
▁Solid
KP
▁liquor
ARRAY
▁pandas
▁anode
▁cartoon
VB
OUTPUT
▁shaping
▁southeast
Listen
▁intermittent
▁pla
Distance
gens
▁NJ
▁laughing
pick
▁Maha
▁caso
qua
▁Budget
▁enlarged
Hit
▁clustering
ave
adrenergic
Obama
▁transporter
▁Whole
implementation
▁Jobs
▁Aus
▁closet
▁Surgery
obi
▁securities
▁Glenn
TOP
alo
neo
▁observable
▁Window
▁snd
execution
▁Horn
Done
▁creators
▁locals
ACE
▁chromosomal
▁Observable
seat
race
MQ
▁responsiveness
▁accent
▁Kil
▁impeachment
▁Edit
▁Austrian
cial
▁outdoors
▁recognise
▁trainer
▁transfusion
▁polishing
▁revolutionary
qquad
▁deer
▁rider
▁contested
▁laundry
▁Mos
▁fabulous
▁fermentation
Generally
DEV
▁supervisor
TextField
Del
▁assemble
▁RP
TON
evo
▁RR
▁dedication
Categories
pri
▁Subsequently
▁rationale
tting
▁cirrhosis
▁messenger
▁Epi
LEFT
▁Lind
▁workpiece
updated
Permission
neck
▁Stand
▁tribal
▁rigorous
VF
▁Fantasy
▁strand
animate
▁Questions
▁suppressor
▁Nam
▁robotic
▁ses
▁Redistributions
▁hazards
▁satellites
▁Marco
▁explode
▁Qatar
▁latch
▁Serial
▁triggering
▁southwest
▁championships
oper
▁Taken
Commit
▁sm
▁poisoning
▁recognizing
▁intuitive
▁Peninsula
▁pitcher
kol
▁Bailey
emit
Wa
OV
▁detectors
uto
▁apical
▁URI
▁FAQ
vp
▁supervised
▁tub
Lab
▁GE
▁Christianity
▁potency
▁Yorkshire
▁withstand
▁coherent
▁grinding
▁prestigious
▁asymmetric
▁Interview
▁Silicon
clip
▁bout
Secret
▁Lok
▁Cultural
NM
Pin
▁Rud
crypt
▁Zend
ARM
▁Joy
perl
▁octa
ocyte
▁DIRECT
▁dst
Rev
stringify
▁organizational
Us
▁CBD
▁Jessica
Asset
▁appellee
station
▁topped
Care
▁Gift
Disclaimer
amd
mind
bas
▁empire
▁Guest
Dark
Hot
▁annular
cen
uh
BACK
Think
▁Ein
signed
pure
▁Congressional
▁histone
▁tariffs
rade
▁deprivation
Initial
Credit
learning
▁McK
▁urging
▁inference
constraint
Quality
▁physiology
NON
▁festivals
ARY
▁KC
Holder
▁addr
▁injunction
slow
▁mul
▁aviation
quarter
ICA
Canvas
▁idle
▁Liu
ARCH
▁dendritic
▁firmware
nium
Regular
thirds
iah
want
▁mismatch
ologist
▁hydrocarbon
▁institute
▁Reform
reading
anni
▁nitrate
swing
tics
▁augmented
▁Starting
▁Nord
▁odor
yellow
▁crossover
cra
▁MVP
▁economically
gor
mber
won
▁Gan
Distribution
▁hackers
▁accord
▁Pool
nel
▁lineage
▁coping
▁Linda
▁cough
▁crank
▁pairing
▁Stories
▁immunological
meth
▁Wide
▁specifies
registry
▁solvents
▁sol
▁Controller
▁syscall
cultural
▁tro
student
▁Kara
▁lightning
eer
▁accumulate
▁Lie
▁continuation
processor
GridView
▁Tommy
articles
▁rays
ppp
▁Flynn
▁Gandhi
▁Ox
▁Carbon
▁Sm
▁turkey
enta
▁wedge
▁cytoplasm
▁cation
deoxy
proj
rative
indent
▁duck
▁reinforcement
▁Rab
▁canceled
▁scanned
▁acquiring
doi
▁Cyber
▁Shan
paid
▁predicts
RH
▁elem
▁facilitates
egan
substituted
▁progesterone
GV
Groups
▁Hair
▁neutrophil
▁spur
▁Subject
▁HBO
tele
▁exceeding
pause
▁embed
NI
▁rc
▁singers
▁Ethereum
▁Bryant
▁postnatal
cul
▁unlawful
▁secreted
wm
bid
▁straw
▁familial
▁identities
▁Focus
▁sem
▁moderately
▁sarcoma
▁redox
▁Cos
uti
▁ammonia
▁indent
▁notebook
▁crowded
▁endorsed
▁cigarettes
Shared
▁erroneous
▁stunt
▁refrigerator
▁deleting
▁Sn
▁exposures
▁enjoys
butyl
▁Cri
▁LOVE
▁profitable
▁sang
▁committing
▁Gaussian
▁rebel
▁Signal
▁meditation
▁chess
▁rebels
includes
▁stripped
▁discounts
▁finals
▁Holmes
▁phylogenetic
▁debuted
vascular
ional
▁SEM
Analysis
outer
▁exchanger
Too
ICE
▁thresholds
iste
▁exert
▁Reagan
ception
▁suspend
▁DI
▁quicker
▁Materials
▁sparked
▁thereon
▁literacy
▁captures
INF
▁lakes
pci
sources
▁reside
▁rescued
abb
▁rev
Flora
▁tagged
FI
esque
▁Wash
▁confront
▁gaze
▁conduit
▁Around
▁amyloid
▁Liga
▁loader
▁Ara
templates
XL
▁isoforms
HIV
▁bombing
Digital
never
percent
isse
▁evidenced
▁facilitating
▁Bil
▁towers
lene
STM
ait
▁Taking
▁Arm
regular
▁multiplication
▁Sullivan
▁wipe
▁prospectively
▁cont
▁hazardous
eti
stdout
lad
▁somatic
▁forwards
▁Mouse
▁proceeded
▁pursued
▁sue
▁Sche
▁exhausted
▁readable
KC
▁sans
▁elongated
dj
bucket
baby
ggy
Strategy
▁Rand
▁CSV
▁resilient
▁stylish
Publisher
▁Initialize
▁explanations
▁worries
▁Entity
again
izz
COLOR
substring
▁Proc
▁Ven
▁mammary
von
assa
dry
▁Finnish
▁fictional
Got
▁Photos
▁passport
lived
▁harvested
▁spp
▁cyto
▁hormonal
ider
Ce
▁shelves
vine
delim
▁endpoints
▁rename
▁Mills
▁Standards
aring
dv
▁energetic
▁Rank
▁appointments
▁united
▁Cast
actor
▁reload
tage
ulated
▁downloads
▁firewall
▁Ronald
▁ammunition
▁immunization
amos
▁drones
thm
eman
Ah
▁SMS
▁ATM
▁Semi
lpl
▁protections
▁ERA
▁Regiment
▁crosses
Include
Resolver
▁Fifty
bang
▁BUSINESS
▁Lau
▁facilitated
ogram
▁contexts
ono
DTD
▁Coffee
▁traders
▁stigma
lessness
▁Ambassador
▁relaxing
gd
▁Notes
▁ARM
▁Weight
bou
Happy
▁intends
ww
Film
▁linearly
KE
▁EXPECT
▁condemned
▁possesses
▁tomato
Forward
dataset
dad
▁epidermal
Sure
Ki
▁hemodynamic
▁parole
▁warranted
▁Peri
GEN
▁comm
iber
ctor
KM
▁believing
▁obscure
▁valor
▁springs
Pair
▁Menu
▁permitting
kha
Choose
▁kinases
▁Leo
▁widow
DX
▁aerobic
lei
▁talents
thio
unless
▁eval
▁BD
▁loc
▁insist
fluoro
Sen
▁SUM
▁Def
prin
CAP
Future
▁bombs
plex
▁tattoo
▁inevitably
▁Identification
JA
▁tackles
▁Beth
Jim
▁Tap
▁Calgary
cong
▁SUCH
▁dissociation
▁practiced
▁alleging
fest
Documents
▁reflex
Spanish
▁Offer
▁Letter
▁fluoride
Far
▁dan
▁exotic
▁purity
IES
▁Bernard
▁Testing
▁Sor
itu
gli
▁RBI
▁Scan
▁rn
▁microorganisms
▁preterm
▁cooled
▁HBV
▁Munich
▁naive
▁Historical
▁Cuban
▁Kur
▁fingerprint
▁UTC
▁Respondent
▁meso
▁Discussion
mother
▁rib
Creating
▁uncovered
Reception
▁pest
Classes
icus
▁touchdowns
▁Individual
▁nasty
until
▁nickname
▁hygiene
etz
JavaScript
UNITED
nus
▁lovers
scape
▁polymeric
errno
Issue
sep
ables
gent
▁Um
▁elicited
▁Jeffrey
▁Dell
▁abandon
▁Pearl
▁sponsors
Law
▁peaked
▁Limit
▁summarized
Albums
▁soils
soap
Examples
Quantity
etto
phen
iller
▁suture
▁Mental
▁asynchronous
▁chemically
UG
▁goalkeeper
▁Parish
▁styling
▁lover
▁WAS
▁basics
▁screaming
▁Canadians
Syntax
▁medieval
▁secular
constructor
▁sparse
INCLUDE
▁reductase
▁Hungarian
street
▁BM
arity
INPUT
LDL
▁Innovation
▁shareholders
▁Solution
▁listened
physi
Railway
gren
▁Porter
▁repeats
multiple
▁lightly
▁Henderson
Fail
California
lake
▁collectively
calendar
▁Actually
▁hy
lla
adapter
▁Cemetery
▁incorporates
▁slit
▁kicks
▁semester
igen
▁Kh
▁fixtures
▁EN
WITH
▁promo
▁categorized
bil
ships
▁Sugar
tura
▁tuple
▁ambulance
baz
Operator
▁quotation
Compiler
Han
gis
Overview
▁modelling
▁Yale
▁cisplatin
▁synchronous
EventArgs
▁Thunder
▁neutrophils
▁asleep
pra
▁interstitial
▁RUN
▁microarray
▁Conservation
▁Getting
▁dispersed
▁heavier
Fatal
▁bien
Setup
▁wavelengths
▁NW
▁expedition
▁influx
▁Mt
zione
eco
▁estimating
Eq
▁Manuel
magnetic
▁ki
CNT
▁Cause
GMP
ink
ational
▁linebacker
▁Interest
▁histologic
▁Toast
▁rage
▁SDS
▁ascertain
▁noon
▁ev
▁coils
▁sono
▁Terminal
later
follow
thrombo
▁dubbed
▁mitral
oxidant
▁comme
rst
▁UE
▁Remote
▁piezoelectric
▁celebrities
▁sq
FUNC
▁pinch
ask
cols
▁TOP
▁opted
entries
▁DD
soluble
dro
▁ec
▁Plaintiffs
corr
▁Abraham
▁accountability
▁kidneys
LK
▁stranger
iOS
▁dominance
whether
Attachment
▁upside
▁spontaneously
▁Yi
▁Hit
oph
▁tastes
▁differentially
TNF
▁norms
▁fragile
▁primers
kra
▁responds
▁hepatocytes
▁Cry
voc
▁Dist
▁steadily
Received
▁coagulation
TOR
RELEASE
▁Kid
▁wheelchair
Death
▁junk
▁crews
▁Arnold
letter
▁Valentine
▁Pala
▁wholesale
▁hometown
Stock
▁PSA
▁attributable
datepicker
▁hunger
Eu
▁onCreate
▁elicit
▁pc
refresh
strom
▁unauthorized
▁noticeable
hur
Russia
Consumer
Inner
▁competitor
▁stabilize
NONE
▁badge
sham
tonic
▁credible
▁stealing
within
Things
▁evaluations
UIImage
KT
▁MLB
KR
Stay
▁Deal
▁arithmetic
▁Rating
Ps
▁burns
▁homology
▁ven
oides
▁vis
Computer
▁braking
iframe
▁debates
ndi
Andrew
▁Investment
▁clues
▁tournaments
▁Sorry
▁silk
Mer
dep
HU
▁COPD
▁Leonard
▁Apparently
▁appetite
▁Hip
Front
Ready
lings
uan
▁Cinema
▁hills
blocks
▁Ghana
Paint
iance
Equals
▁Tyr
▁Eco
anchor
CAR
▁Erik
OUR
▁Whatever
▁spirits
organ
▁stretched
svn
icons
▁Trophy
Loc
Tax
hawk
▁perceive
▁fragmentation
▁multiply
▁scare
pv
questions
zw
anger
▁blur
▁dwarf
▁Fix
rai
▁McC
▁threaded
▁Therapy
▁Swa
▁overly
▁phosphorus
▁renewal
payload
▁ventral
▁Musk
▁Increased
▁pledge
▁Http
paste
▁travelers
▁EX
either
▁Voivodeship
▁leisure
▁typed
▁Herald
▁enclosure
▁recursive
ibm
Drive
▁staple
crit
Alex
FH
▁possessed
▁Railroad
▁entropy
▁ulcer
▁Past
▁Feel
eni
▁VARCHAR
INE
▁renders
▁installations
Favorite
curr
above
Bibliography
▁deficiencies
▁Nicholas
▁flagship
▁Holiday
▁inherently
▁locale
▁SNP
lytic
▁Flat
▁standalone
▁Hopefully
christ
boat
▁installer
▁Eventually
▁Competition
▁Powell
▁Origin
bul
Les
▁arrows
▁KB
▁Ship
▁URLs
LAS
community
▁parsed
rell
Completed
▁twins
Exists
▁colonial
▁Principal
Payment
▁studios
▁hernia
tableView
Mad
Nil
KL
ADDR
▁latitude
▁resides
LOCK
plication
▁bishop
Describe
sentence
▁amorphous
▁Configuration
▁promptly
▁risky
▁neurodegenerati
printStackTrace
molecular
sets
▁waived
▁Joel
▁Angela
▁chiral
▁settlements
ades
▁preceded
HEADER
▁Brook
viral
▁precursors
▁intraoperative
andy
▁intriguing
▁Athens
▁penis
▁anxious
▁dar
▁mechanically
▁presumed
shaw
▁sums
▁insane
UTC
▁Ultimate
▁Kerry
▁pode
friend
▁Bir
backs
breaking
▁idx
uce
▁TIME
tio
▁ROM
▁RSS
fake
▁hover
▁heels
▁ND
▁nitride
Cut
▁superoxide
▁overtime
offs
Tim
LIN
ande
Grand
▁gluten
▁Muhammad
SMA
▁bundles
▁pulls
▁removable
jsp
▁Nice
▁WILL
▁blowing
astic
▁Rail
uts
problem
▁Wonder
▁scam
▁methane
aud
▁intentional
▁supplemental
▁Directory
Talk
▁whatsoever
Young
▁Dow
Mono
▁sacred
▁inte
Smart
corp
▁vanilla
▁Vote
▁aggravated
▁Clo
wich
▁Dale
genetic
izes
asset
▁imperative
▁posters
Ku
lou
thumb
lore
▁DATE
PU
▁pentru
umble
▁lamps
azo
▁superb
▁Allow
▁finale
▁Wii
▁crisp
nothing
hist
▁Bow
▁LM
▁Prison
▁Sudan
▁Comey
▁Gilbert
elt
▁marathon
▁dragon
preview
TCP
EXP
deploy
▁SHA
▁Duncan
▁interpreter
▁jeans
▁progressively
extensions
Behavior
▁cyclo
▁gamers
hep
▁Found
▁functionally
▁Tiger
oso
▁Sab
jq
▁Hello
LENGTH
▁embassy
▁Lion
▁upright
▁runat
Trace
▁Published
▁Hop
▁outdated
DVD
▁HPLC
borg
▁surfactant
▁Raiders
▁clan
▁minimally
▁harbor
Fn
▁Lynn
JD
Sales
▁ECG
▁avoidance
Indeed
collapse
launch
Ve
▁homework
critical
▁naval
▁honors
quest
ADA
▁Tha
▁nas
Tasks
▁Rot
vote
▁ei
plt
fort
▁Yankees
▁constructing
diy
▁Orthodox
▁Stuart
▁Dawn
▁stain
▁nausea
▁Martinez
▁Michel
Chief
bai
▁preferable
▁cured
Pod
rer
▁programmer
mates
▁confronted
▁Album
▁Knowledge
▁reservation
▁Adrian
▁gradual
▁WiFi
▁Flag
▁travelled
▁Fly
▁Rate
▁treaty
▁graphical
▁Stevens
▁hacking
▁pics
asse
Alternatively
▁Jin
▁predicate
textbf
▁parked
Mel
▁Indianapolis
ulent
▁dissolution
ried
▁Griffin
▁MV
voltage
▁Independence
▁orally
holding
▁Industries
▁effector
iostream
▁Legend
▁Hamas
▁sy
Australia
visibility
▁migraine
▁stairs
Seconds
Songs
▁altering
lst
▁weekends
Texas
official
▁MF
▁wished
▁bubbles
▁dare
▁thesis
▁emitter
▁exponent
channels
▁Define
▁sha
▁Jesse
dre
bili
Vol
▁abdomen
▁hesitate
LB
▁civilization
raise
▁chick
▁fibrillation
▁locker
▁Echo
▁snack
▁exported
▁hypertrophy
inen
▁digging
hydro
Director
▁formatted
Arm
resp
▁Triple
▁psychosocial
▁orchestra
▁cutter
▁jointly
different
▁Joan
▁discriminate
▁radioactive
▁Advisory
▁Nuclear
▁WR
▁brass
▁obstacle
▁Emily
▁ace
Rad
enti
ders
Rectangle
▁absurd
ometric
▁siRNA
▁cutoff
verify
▁cuisine
▁performers
OX
Linq
▁degraded
Sprite
▁detrimental
perm
lack
▁intern
dead
ingen
▁bitmap
nitro
▁homologous
Fun
asc
▁amenities
▁cessation
▁pill
Spi
games
▁spreadsheet
▁billing
▁starred
▁fonts
▁photographic
▁attain
awt
ComboBox
▁Krist
▁anal
acre
▁allergy
▁tractor
ACC
▁weighed
▁leagues
▁Vin
BN
▁tide
▁Sixth
▁outward
▁Chip
rico
▁pri
plastic
▁Centers
▁hilarious
▁myth
uo
▁WL
▁autumn
Students
▁faithful
Kim
▁Roth
bos
▁disappearance
▁sharply
▁pur
Push
avo
▁multimedia
▁corrections
▁adversely
▁fortune
▁Alert
WebView
▁Conversely
LG
▁magistrate
tent
Optional
▁compiling
onne
▁ADC
▁glaucoma
▁aerosol
▁blunt
Subscription
Brien
▁coral
▁touring
▁Manning
▁pip
▁Interface
▁trades
▁unified
▁pollen
prob
▁Ferguson
▁Lip
tiny
▁ERROR
▁adopting
shu
▁Twin
▁BL
erg
beam
▁Actor
▁predictable
lant
▁summarize
mak
rna
▁Banks
jah
contrib
findViewById
▁soybean
▁contaminants
scr
layers
inet
Closed
▁Reynolds
cion
▁disposable
▁liquids
▁eaten
▁justification
▁atrophy
formed
▁Vas
fac
▁worlds
▁tenth
▁Chang
▁advertisements
▁illusion
▁Vista
▁Bun
ride
▁Inspector
INSTALL
ault
▁cleanup
▁surrender
Much
clo
▁spelling
▁prince
prim
▁twitter
Shift
▁Schedule
▁hemisphere
▁MG
IU
▁Push
oscopic
▁hobby
▁HH
▁sounded
▁hierarchical
▁SG
aca
▁Ark
trop
▁Recovery
▁Pharma
Concept
▁Rapid
▁interfering
yet
▁shells
cyclo
▁Russians
TEM
▁Clarke
quick
▁staged
▁molded
▁resign
▁protagonist
▁tbl
inflate
▁Shore
Radius
▁wird
▁freak
Rank
onset
▁Running
esta
ym
▁Kol
Verify
▁Tehran
▁heel
plasma
▁decoder
▁favored
agon
▁basin
▁kom
▁freight
▁Armstrong
▁Faculty
▁Heights
ordered
oids
▁diving
▁crafted
▁recommends
▁Colin
wu
activation
▁dominate
▁MHC
Hide
▁Verizon
▁concerts
ought
Exec
unsafe
▁Success
▁Million
▁Egg
▁cron
protobuf
▁Que
chunk
▁LOSS
▁inaugural
▁Bart
rage
fee
▁Login
▁graduating
▁incremental
▁Coin
seen
Uint
throws
symmetric
serving
oscopy
omp
▁Forward
▁abs
▁Shipping
▁Reserved
oauth
swap
▁Walt
▁nonetheless
▁offenders
▁sta
ease
▁Cow
▁MN
▁Wy
elect
rsi
▁Evolution
lag
uge
listen
▁Partnership
▁Lopez
Ya
LAND
▁spends
Bits
▁kicking
AQ
▁Silva
▁ambiguous
CFBundle
▁dangers
▁uns
Constant
rac
little
tran
Leave
▁incurred
kom
▁modeled
▁contradiction
uzi
▁infer
▁Rams
attachment
▁radiographic
ICS
lander
▁Pelosi
▁cracks
agen
Buy
instead
thr
▁Strike
▁cp
▁citation
Wall
giving
▁Barnes
meaning
Met
▁Blair
▁Nike
▁Beast
EES
▁rollers
visit
▁chickens
▁mutually
▁pathologic
xpath
enda
▁caffeine
immunodeficiency
omycin
▁qual
▁UTF
xhtml
Cas
▁genital
reach
▁IIS
Less
colored
▁detects
nya
▁Meet
Virtual
▁customs
▁Ralph
fiction
hint
▁dispensing
rates
▁submissions
ature
▁midst
Character
▁congestion
drag
CCC
CURRENT
yd
▁Klein
▁bargain
▁idiopathic
▁polyethylene
▁Blo
cool
▁Posted
WI
zyme
▁academy
▁mysqli
Mem
▁Ace
▁Richardson
▁cricketers
▁nmol
▁translates
Brand
▁sprint
▁cer
▁constructive
AST
▁hiking
WG
pH
tti
▁Catherine
hadoop
▁EB
gain
▁Foot
▁chunks
▁crowds
▁Cardinals
▁encoder
distribution
▁maturity
utta
▁Pie
Bridge
▁fiddle
▁Dem
▁hearings
fraction
mania
kdj
hip
▁reinforced
▁mentor
▁pharmacy
▁Belt
enia
▁seals
surgical
▁Emma
▁Swe
liquid
▁biliary
▁vegetation
▁barn
exclude
trust
▁sediment
▁Premium
▁antiviral
▁cuff
EI
strings
Supreme
▁bloody
▁endothelium
Contract
▁Hen
▁aggregates
▁Associates
▁Pas
▁mot
▁fri
▁SSD
MSC
sem
▁realised
▁Feed
schedule
▁minimizing
▁Dur
▁biomedical
aldehyde
▁spells
▁exhibiting
▁CN
▁Cathedral
▁Hopkins
▁oscillator
▁occupy
▁quo
▁Sham
rach
POINT
▁disputes
echocardiography
▁segmentation
duc
gard
▁vet
alone
fos
aze
Structure
▁VB
▁barred
▁Cable
supported
▁reliance
▁spanning
▁surroundings
lah
▁Discovery
Metrics
▁cached
▁umbrella
▁sequentially
▁Gets
▁habeas
▁analogous
▁Pod
▁prep
▁scrolling
Western
▁chill
Models
▁subdivision
Dispatch
▁threaten
▁pitched
Bounds
▁embedding
▁Jong
▁malignancies
▁competence
TED
▁cis
Employee
▁pertaining
growth
▁Logan
inst
wh
▁airports
▁conformational
▁Grande
FK
DY
▁HT
Union
▁drastically
▁Deb
probe
Appellee
▁alleviate
Constructor
▁Fresh
▁healthier
▁mem
unconstitutional
▁Investigation
racy
▁imagined
those
▁Unicode
▁Stefan
cht
Easy
erman
▁relieve
Phase
▁Truth
▁Peterson
Tracker
PX
▁pledged
Orientation
erie
GW
▁qualification
▁irrigation
keeper
AFP
▁Brisbane
▁repaired
suite
statin
Six
staff
▁ph
ibi
▁martial
▁oxidized
▁tur
▁imposing
▁Sharp
▁Revenue
▁sn
▁archives
▁VO
Turn
▁lien
▁MMA
▁tempo
mission
▁ideology
▁autopsy
▁assertEquals
▁Chain
▁topological
rack
▁Julie
▁gods
vl
▁medals
▁doubts
IK
▁measurable
▁Improvement
▁arose
▁Hitler
▁worrying
▁Fashion
▁Install
▁inserts
ANG
▁hardest
▁irradiated
HG
Notable
endpoint
iPhone
PREFIX
▁installment
tosis
beck
▁Heaven
▁feared
▁dignity
rov
▁Cowboys
Executor
BMI
CHA
encing
trap
▁genomes
probably
▁disappointment
▁fog
ction
▁evenly
sensitivity
▁Companies
▁darker
▁pussy
▁conventionally
▁decoding
Constraint
Books
nch
▁Scar
▁committees
bla
▁ample
▁bur
▁parasites
Generate
MJ
▁catches
▁Added
structured
Wood
Vec
uke
▁antennas
codec
iner
leave
▁infamous
▁Chad
▁Lite
achi
vier
▁poison
▁semantic
▁poles
▁rect
▁kb
inated
▁accidental
PROJECT
zhou
▁suffix
▁vomiting
▁partisan
Surface
controls
CW
Encoder
▁erase
▁DAMAGE
▁Armed
ALTER
Receiver
▁lending
Pad
▁slowing
▁neglected
INIT
better
▁Bert
▁Julia
▁monsters
partition
▁Drew
leaf
vat
▁inaccurate
▁Nokia
rotate
▁NEGLIGENCE
cet
▁Motors
bx
CASE
▁Academic
▁RB
atti
Managed
▁aftermath
▁Boulevard
▁detergent
Movie
grep
▁destructive
▁indie
fluid
nad
wat
QT
Israel
tasks
Zip
▁Pedro
HY
HQ
▁NaCl
▁sellers
ccc
Hidden
grand
previous
liv
▁Ruth
babel
elf
▁exchanged
jackson
ark
▁economist
lio
ents
▁cloning
▁underwater
QL
NODE
▁advancement
▁sculpture
ifi
▁pooled
▁happily
▁bachelor
▁Perth
▁syndromes
lect
▁einer
▁Pitt
sites
▁endometrial
userId
▁inverted
createElement
▁horizontally
Products
▁rad
▁Zhang
▁Cro
Hook
sole
rata
worthy
Jones
▁wholly
▁pupils
▁GST
▁Walmart
▁contend
Similarly
▁goodness
▁transformer
▁determinant
▁HI
Arch
Cannot
cephal
▁constrained
Uh
▁runway
▁strengthening
▁stole
otto
paths
▁selenium
▁Posts
Difference
▁Fc
cite
Bot
▁ur
gravity
FALSE
Fri
uel
hey
Eric
ELL
CMAKE
▁ADHD
▁negligible
tid
carb
ury
▁exploited
▁acuity
stre
▁wool
Jeff
IND
▁Travis
▁analogues
▁decorative
Signal
Slot
▁Adventure
▁Opinion
ega
research
ENCE
▁rainfall
ffi
▁Fight
▁fines
▁reperfusion
▁LS
ryl
lecommunications
▁attaching
▁offseason
▁Patrol
▁stromal
▁reagents
signature
▁prosthesis
▁disciplines
▁valuation
▁Via
▁printers
▁voi
▁specs
▁disputed
NES
Rules
▁salaries
meric
eagle
lung
▁boasts
▁McG
▁readings
uploads
▁recycled
▁LAN
▁puncture
▁disconnect
▁deprecated
▁Associate
▁awaiting
tat
▁ONLY
rite
Journal
Decoder
▁TT
growing
▁nails
▁verse
▁soda
▁realization
ATT
▁shades
▁PROFITS
▁bust
▁Character
▁pol
▁affiliates
▁Lam
INS
Shop
getText
▁Acute
▁AJAX
REC
▁endangered
▁wizard
WM
▁Imagine
▁indexed
Sleep
▁socially
▁unreasonable
▁advent
failure
Missing
▁Distribution
▁assisting
▁realizing
▁duplication
▁reopen
▁Canyon
▁actresses
iton
▁enterprises
notes
Returns
▁undoubtedly
▁Doc
▁Serbia
Pixel
▁vest
published
▁tenants
▁commits
Drag
PAC
polymer
▁tuition
▁palace
▁polarized
▁originating
▁haben
bigg
▁Faith
Conflict
▁Surgical
geometry
pies
▁Wei
▁referee
hydrate
iling
▁anaerobic
▁Xcode
▁theaters
▁Obamacare
fuel
▁ego
ANA
▁Audi
▁Sabha
ely
▁ty
▁Admin
▁owed
▁Tribune
GUI
lement
Introduction
▁beers
▁Architecture
Nullable
▁NL
Rating
▁Browser
Tra
gating
▁lump
▁jets
▁Casino
▁cy
▁droplets
▁guideline
▁residing
promise
▁shadows
ehr
▁endurance
▁cataract
ATE
▁Barb
▁reel
tensorflow
▁contracted
saw
▁Av
volatile
▁revenge
Yo
▁vertebral
▁hematopoietic
electron
▁textures
hail
▁Nutrition
▁offender
scheme
▁Southwest
▁Seoul
Metric
▁ideally
texture
DIS
▁hooks
▁Optional
Political
▁ICE
aden
nov
Times
▁Leeds
▁Monster
▁ACC
▁argv
▁charger
CBC
OVER
▁overlooked
▁sl
▁upgrading
▁sludge
▁histamine
Supported
▁adulthood
▁collisions
▁localhost
▁polyester
▁ubiquitous
▁brew
ticket
▁Points
▁Delivery
EW
fra
lers
▁enacted
▁nodules
▁reconstructed
RewriteRule
anto
similar
DOC
CAC
ASSERT
catalog
▁sticky
▁McConnell
Pacific
lating
aus
SEM
ope
▁polish
SY
▁mediators
Hol
DOWN
▁attained
▁WC
Building
▁pharmacokinetic
Backup
▁Azerbaijan
▁prophylaxis
▁medicinal
Hub
▁glow
Guid
Pages
cmp
▁cracking
Reset
rooms
▁Dub
▁Mack
ESS
▁pesticides
forum
measure
AIDS
▁parity
▁nightmare
▁skirt
sby
▁Miles
▁Minneapolis
nite
▁Considering
▁lupus
Market
▁sensible
▁discontinued
▁Pit
▁ADVISED
▁axle
ismo
given
▁biomarker
computer
sales
oci
▁socialist
Force
oj
▁Bis
▁activates
OU
▁INDIRECT
missing
orum
▁XL
▁Fellow
defendant
▁portrayed
capture
▁Bloom
▁Gibson
sensor
dbo
▁barrels
esse
Park
▁shortcut
▁Hour
▁clamping
ication
capacity
Publish
LONG
Judge
lom
▁Economics
▁Koch
▁Sacramento
nf
▁aliens
Hy
▁cyclists
▁Cart
▁Nest
OPEN
phthal
quel
Notify
Testing
tube
▁Abbott
destination
▁Boot
ress
▁esters
deno
▁camping
▁Aviation
▁conditioned
▁irrespective
▁founders
▁Sprint
crew
▁Louisville
▁Clay
pore
witch
bounds
Sat
▁rand
elic
roe
▁CONSEQUENTIAL
▁bodily
▁immature
▁radiological
▁shortened
▁Brett
▁emotionally
▁HOWEVER
▁grief
cock
INC
▁factories
▁explorer
▁ble
dent
Performance
▁educators
▁cysteine
▁salvage
tumor
▁Swan
▁palette
▁dealers
caps
▁NV
▁livestock
▁currencies
▁Bog
▁restoring
▁STAT
▁slavery
▁monument
escent
Ware
pathy
▁RGB
▁passages
▁lesbian
▁chord
▁cysts
▁Angels
▁tenant
crystal
▁nullptr
▁supreme
▁Strip
▁cruel
▁POSSIBILITY
▁Pt
▁INC
▁capacities
resolved
Rob
▁conception
▁CMS
keeping
Buf
▁beverages
▁coherence
▁hatred
lves
Checked
▁eq
hra
ifier
▁interacts
▁clo
▁deliberate
▁brakes
Assign
▁Trinity
individual
dma
▁Fra
▁glomerular
▁environmentally
CMP
crop
syntax
▁transporting
▁OFF
▁Compute
▁replay
▁DIS
owl
▁pathophysiology
▁descriptor
EK
▁DLL
Course
▁sweeping
▁fractional
▁Reporter
▁Crew
▁planting
▁Spin
dyn
▁STRICT
distinguishable
▁risen
▁iPod
▁apology
▁respects
▁Oc
strict
▁nonsense
Must
▁Draw
▁resins
claim
wg
benz
listener
ACCESS
▁theoretically
▁polypeptide
▁Disc
ROS
▁IgE
igne
▁hydrocarbons
carcinogen
yml
▁Understanding
▁minorities
▁sexuality
AW
nary
pw
▁Kel
▁victories
Piece
▁postoperatively
▁backpack
sku
▁Brief
▁smear
together
▁Groups
▁intercept
▁flock
employee
▁monocytes
Lang
▁servo
Toggle
▁fulfilled
▁organizers
ACTION
Broadcast
rier
▁Saw
VG
chem
odo
▁Glu
▁backyard
Saint
▁scholar
VL
▁fait
hic
▁outreach
▁peroxidase
▁markup
Dump
▁Progress
poli
▁airlines
Workbook
cls
Reading
▁nap
▁Lil
eurs
hora
widetilde
iding
packet
samples
▁BO
ORM
▁Hai
▁antibacterial
▁sul
Cam
▁Period
flower
▁Panama
goal
aves
▁swept
▁solubility
▁milliseconds
Prepare
▁Pb
fps
▁Congo
▁securely
Preview
▁crush
▁overhaul
▁govern
▁HL
chapter
▁boycott
▁objections
▁Wade
Development
▁hey
▁animations
▁affiliation
▁booth
▁needles
▁formulated
▁Administrator
▁FR
▁carbonate
▁abort
SUCCESS
▁aids
Mag
▁mon
▁economical
▁infect
vim
▁Lieutenant
▁responders
▁Born
▁ptr
▁Pont
▁surround
▁commenced
Deep
▁crust
▁Sai
mph
▁hinge
BOX
phrase
zed
▁contempt
▁boiling
▁Municipal
paced
keto
▁waveform
▁saliva
Average
KU
needed
▁vault
SDL
interest
Proc
▁Ivan
Router
▁PAC
▁labelled
ipping
globin
stead
▁Trip
▁slaves
▁Cab
▁poorer
iert
kers
▁GHz
▁seniors
ips
odd
▁Gregory
cream
RTC
bak
▁faint
Angle
tera
hb
▁progressed
▁closes
▁CVD
▁Graphics
▁Woo
perform
▁Cons
enburg
Band
possible
Dimension
lob
▁socioeconomic
warn
▁defeating
▁RM
▁reagent
▁NR
▁slowed
▁fundamentally
▁Alfred
Certificate
much
digest
medi
▁lounge
compatible
leo
▁resemble
rado
Nick
▁FP
inspired
▁welcoming
▁hyperplasia
▁heights
logs
▁flaws
▁Coll
▁Castro
swift
ABSTRACT
Conclusions
▁neutron
▁fraudulent
▁dick
▁exempt
▁COL
▁steer
WL
italic
Blog
▁Plaza
gulp
▁tal
Mid
▁Netanyahu
kim
▁Mit
▁squeeze
▁septic
▁Institution
Filename
trained
fal
quit
▁wines
▁Lance
SUM
▁manipulated
▁voluntarily
aste
▁glycol
▁museums
Lawyer
▁Canal
▁Guild
CoA
▁locality
▁demonstrations
▁Cre
literal
▁Kerala
▁Few
▁Ashley
Destroy
▁LEDs
▁questionable
▁concurrently
▁Lightning
opsis
▁LTE
▁Johann
▁porcine
▁phosphatidyl
▁inconvenience
Professional
currency
▁Lib
▁commitments
▁oder
▁onion
▁CRP
▁stint
▁hepatocellular
▁gait
blood
▁Detection
▁Contract
Mean
▁Pilot
enzyme
▁amendments
Transition
▁correspondent
▁hemo
hoe
▁Rust
enge
▁boxing
minimal
▁Pig
▁todos
▁attachments
awk
zin
PSC
▁swift
mina
tak
▁ammonium
▁jumps
gable
hg
Flash
gay
▁assurance
▁Enable
mounted
Chapter
▁Organ
▁forthcoming
frontend
Boy
tok
misc
▁refuses
typ
rab
▁Hebrew
▁grounded
▁cocktail
pea
▁unpredictable
▁stator
▁Roma
▁inventor
displaystyle
bate
▁cylinders
nullable
▁poker
▁Population
▁multiplayer
▁TG
▁nowadays
▁thankful
▁negotiating
▁Pap
▁aroma
heads
lasting
▁Outlook
▁exemption
Cert
▁anesthetic
odds
ArrayList
CHANGE
▁quad
ClassName
▁conveniently
▁stool
▁Knights
▁HTC
▁histology
▁Dot
speaking
▁Div
▁plasticity
▁stabilized
leader
alia
gno
BU
Finder
Mary
Reply
▁Carroll
▁LO
▁wiki
▁cheat
▁collaborate
▁slated
▁outright
▁penetrate
▁executes
▁Programme
JB
▁comeback
▁discarded
organization
▁trench
▁Kre
▁aquatic
▁whoever
▁nominal
▁Novel
Heat
▁oocytes
▁depths
▁gravitational
▁Adelaide
Making
describe
▁Lamb
▁leptin
▁expressly
▁tactical
▁enamel
▁THEORY
▁secretory
clad
▁cho
▁RO
numbers
rake
iers
▁innovations
flu
▁disturbed
comm
▁Assad
▁Whereas
iate
▁startups
Trim
▁Auckland
▁Lac
Bay
ination
kawa
▁coarse
Feb
▁ritual
ologies
▁Hus
▁Buddhist
league
shin
▁compartments
▁Memphis
▁Gly
▁autophagy
AIR
▁inning
SEL
MHz
▁JA
▁Casa
vista
▁conceived
▁Pub
synthesize
▁grill
▁Imaging
▁Christie
COLUMN
equation
mato
usta
olytic
▁massacre
▁Poor
▁STATE
changed
▁transfection
ENABLE
Community
natal
▁drummer
▁Edmonton
▁whi
▁FX
▁critique
▁Subjects
openssl
Feed
▁Certificate
▁cellulose
Refer
iac
▁Anton
▁spider
bow
FULL
dox
ovi
wards
▁Queens
fund
ylation
▁Broncos
Act
▁genuinely
▁motive
death
iles
Setter
▁Fear
MID
▁throttle
inder
▁augment
▁conductors
▁hum
▁Raymond
▁blob
▁GOODS
▁CONFIG
▁jersey
▁insult
▁desperately
▁charming
▁AAA
ferro
▁Median
Seven
tler
mathscr
▁goat
voy
▁monomer
lli
GHz
▁cares
EVENT
▁eliminates
mere
EZ
▁Cannot
quet
asia
▁Sequence
actin
▁fused
Ice
picker
cuda
grass
CORE
▁einen
Days
Singleton
MH
▁grooves
▁pid
kee
Monitor
▁entrepreneur
Ids
tol
▁Stockholm
▁myeloid
▁assigning
▁photons
Decode
▁succession
Labels
▁NOTE
▁pushes
circuit
▁Drag
movie
▁anion
▁dosing
▁reluctant
▁SNPs
decoration
Fix
pulse
MenuItem
TIM
▁Failure
▁bedrooms
inositol
china
cryptocurrencies
dimethyl
zA
▁lasers
▁handlers
rush
▁rooted
produced
▁mixer
▁poems
▁scent
Logging
gps
▁Hood
▁outgoing
Skip
bir
uba
rte
▁keyboards
▁Gem
ItemGroup
▁Cont
Img
unta
cutaneous
onna
ITY
wordpress
golang
▁Gla
▁Carson
unlock
Luc
▁Element
▁CAUSED
▁formulas
Ever
Mas
▁tomatoes
locked
tune
▁Invalid
clinical
▁ruby
▁pedestrian
▁notices
▁nominations
▁Present
prog
haus
Players
bullet
▁thermodynamic
▁apex
▁tracker
▁resembles
▁buzz
evt
▁perforation
▁Scotia
▁betting
▁fierce
▁stove
▁SAP
Btn
▁subway
▁unconscious
▁outrage
PRO
Aug
▁Header
serialize
AO
▁Burns
▁wh
GRP
▁pine
▁plausible
▁violates
▁finances
pala
ake
wash
▁Beautiful
osine
▁timber
▁confrontation
▁Rub
▁Photograph
▁dy
▁moist
▁Positive
▁obey
▁modality
▁Quinn
LOW
ibo
cycl
Viewer
recht
▁Isaac
modern
visual
migration
jc
▁percentages
▁headset
▁ruin
frag
Intel
assertEquals
▁fabrics
semi
scribe
▁Mozilla
▁additives
▁thoughtful
▁clearer
▁exploitation
PTR
▁bullets
▁fetus
colour
▁warmer
▁substantive
▁NM
▁hatch
Defendant
unge
▁filesystem
▁Dunn
Capture
Tracking
▁insufficiency
methoxy
otta
▁oak
ATP
▁logistics
▁judgement
▁angel
▁Hun
Hex
▁abnormality
▁belly
▁Pier
▁mentioning
rpm
coupled
pine
▁acrylic
really
▁storms
▁Brent
▁Genetic
▁vil
liter
▁Pence
▁teaspoon
▁contralateral
▁McCarthy
shock
▁beginner
yahoo
AMA
▁bait
▁encodes
▁Nigerian
▁ART
sidebar
arn
▁Fleet
idium
▁lat
▁fortunate
Blend
▁Rosen
Uni
mozilla
▁illustrations
onder
▁Nut
uter
PCI
▁fibroblast
▁filler
▁manifestation
▁marble
▁capita
▁Experiment
▁seu
▁Pure
▁flavour
▁Earlier
SQ
▁Ep
▁promotions
NER
kos
▁publicity
▁TEST
▁elective
FET
kla
▁Comic
▁Ner
Loaded
▁ribs
osity
▁Mach
▁regain
variables
▁recess
▁selects
WATCH
ologists
▁Transit
ovic
▁Fran
▁Err
▁tolerate
stress
DROP
▁ri
▁commute
▁weed
▁exams
fulness
morphism
ched
▁GW
▁PTSD
▁IPv
▁revert
▁Ale
SHIFT
▁Wor
▁Rein
lichen
▁fridge
kowski
algorithm
manifest
▁punk
▁osteoporosis
▁Pearson
▁Bengal
▁PKC
▁Tweet
▁Wick
lator
▁pela
serial
minor
▁Scho
eat
documentation
▁peek
xmm
bw
implies
RAN
▁pitching
nah
pig
alan
Federal
▁Vince
avan
▁Hack
mw
Launch
quo
▁Alternative
▁tones
▁restraint
Lookup
▁Homeland
▁periodontal
▁homepage
Taking
▁Pil
▁Rhode
▁statutes
thesis
▁borrow
ZA
▁cohorts
inning
STATIC
▁tonnes
▁persisted
▁alphabet
▁unanimously
▁wa
▁NSW
Always
▁deputies
▁editions
▁essays
▁INCIDENTAL
▁cultivation
CIS
listing
▁Wan
nome
sher
▁miniature
▁suburb
uation
▁Campus
alle
eia
ych
worm
▁shout
▁expiration
▁lace
Johnson
▁Allah
▁airplane
▁conductance
RET
▁hull
▁undertake
▁discovering
▁Securities
▁Kurdish
▁coincidence
bond
▁insists
ABI
kinase
tomy
ail
▁Morrison
Zn
▁Sud
▁acclaimed
▁lend
Sep
▁Shakespeare
Ham
oba
llo
▁Haven
▁copolymer
▁Bos
▁Gli
esti
aught
▁histories
▁Sue
▁blues
▁lbs
▁Charge
▁crushed
▁clarified
▁sz
▁salivary
Tap
Brian
▁Gel
Gra
▁appliance
▁reckless
▁hedge
Matcher
▁Florence
▁uneven
ishing
▁codon
▁blah
▁Kun
boxes
sorption
▁Salmonella
listed
▁Ahmed
▁surgeries
▁Dollar
▁lone
▁Engineer
▁awake
▁Entry
esteem
▁alternatively
▁recurring
▁toxins
▁Launch
▁Tin
▁Burke
OLD
▁Canon
▁sequenced
▁BTC
▁stressful
▁deliveries
▁Est
hair
▁thi
▁tribes
▁discourse
Styles
▁denies
insky
▁freed
▁rRNA
graphics
▁Analytics
rip
▁spectroscopic
▁cas
phor
inski
overflow
Chunk
▁immense
▁nun
Clean
notice
appeal
sworth
▁nav
Sport
azine
▁Format
▁distributing
▁Parse
SCC
▁dragged
hee
mental
▁mainland
▁Municipality
Promise
▁Iceland
Way
▁enthusiasts
▁caching
otti
▁INTERRUPTION
notification
▁trustee
▁fibrous
WORD
▁NEWS
inside
▁divine
iae
▁foundations
▁Lyn
▁Trudeau
EditText
Rs
▁suburban
▁devised
CCA
▁autologous
Energy
steps
▁waveguide
Tuple
▁molar
▁baked
▁virulence
▁confinement
political
▁traps
▁ionization
▁Sul
Matches
wk
▁debugger
dollar
▁Omar
Como
PIC
▁tracing
Capacity
▁ACL
▁admire
▁reflux
setminus
▁Cream
▁halo
▁tapes
peri
AWS
▁granules
▁vacant
dice
CONTENT
▁SharePoint
operated
DER
▁decor
▁repetition
Expatriate
▁deviations
▁Contest
▁lord
ulate
▁mines
MIC
▁fibro
▁ganglion
▁polarity
lein
▁Anyway
Soft
tico
▁yearly
▁thriller
▁EGFR
anus
todo
compress
jit
▁thru
▁residency
Pu
▁resolving
IGN
horse
▁surf
NZ
▁yr
▁aspirin
▁Ferrari
Et
▁Animals
▁PayPal
▁Cas
PW
omo
▁Workshop
▁visualize
sso
▁Fas
Partition
▁Nag
▁nationalist
▁Truck
idea
▁Script
▁expands
▁SUBSTITUTE
centered
▁zijn
keywords
▁Cruise
▁Rag
▁humble
▁wasting
▁vibrations
▁DH
arse
boo
designed
▁shiny
▁Networks
MATCH
▁seated
pyridine
▁Mirror
Connected
▁bride
▁hashtag
▁allegation
Alumni
▁laughed
vascularization
ORS
▁milestone
Study
tiv
▁exerted
React
▁authorize
Alt
increment
▁poured
▁mindset
▁PROCUREMENT
▁Bend
▁Cord
▁Tip
women
▁tasty
▁sponsorship
▁Transaction
▁cheer
MainActivity
▁Healthcare
▁noch
▁clarification
▁Drosophila
nex
arium
▁kilometres
▁conjugate
▁standpoint
UF
▁certainty
▁Chancellor
▁doping
Slider
▁firefighters
▁Mut
▁recreation
▁sting
▁bake
▁teammate
▁Sem
▁bloc
nano
▁Views
COMP
labor
SCRIPT
wald
▁CLASS
▁Wireless
▁shark
▁structurally
▁proliferative
Cur
▁Andrea
sche
dip
▁gli
Known
liar
EVER
Used
Sharp
▁chopped
▁Tang
▁downside
IFN
▁squ
▁batting
▁Hypo
Predict
Japan
▁bead
▁Rescue
STAT
▁epidemiology
tung
methods
▁normalization
▁Bulls
▁mistaken
Rotation
Assets
▁epigenetic
▁surplus
prec
eel
▁Except
perfect
▁polygon
▁Registration
Qt
▁lui
rsa
▁Vis
▁feminist
▁hypothesize
▁antitumor
▁AK
▁Geneva
▁Dol
▁hydroxyl
▁whistle
▁frankly
▁Brasil
KG
▁Visa
isEmpty
biz
overlay
▁Selection
omas
▁compliant
Eight
▁hypothetical
▁ignition
▁infringement
▁pasta
▁Armenian
▁ethylene
▁Kane
▁Glo
▁iterations
▁evacuation
▁Westminster
oth
Sender
▁Dana
▁IgA
▁ICC
infection
▁fathers
▁MUST
▁tx
▁congregation
▁bearings
▁Cock
ssing
ATPase
XP
▁fuse
YY
▁lawsuits
assuming
▁thinner
globulin
▁cb
gla
▁UNITED
▁inviting
ttle
▁prompting
▁defenses
▁CAR
▁allowance
DW
▁rainbow
cpi
▁Kurt
phil
oja
champ
▁CONNECTION
▁detective
MAT
▁Mitt
▁calf
▁compassion
▁singleton
▁percussion
wel
quantity
erb
oplasty
▁yielding
dup
▁Arrow
woo
▁Nobel
kubernetes
LAST
▁sneak
▁Medium
▁Decision
▁Thing
▁ditch
▁enforced
▁EST
▁Prefecture
▁Registry
▁molten
ambi
Writing
bz
eem
▁cumbersome
YYYY
cov
orders
▁sep
readonly
▁devil
nda
ListItem
▁modifier
▁Beauty
▁Chronic
pix
Modified
▁intervene
Mongo
▁owe
▁Mohammed
Individual
rica
RPC
▁glyco
▁dell
Adam
eter
backend
jewel
▁Plate
▁assaulted
Nor
▁scatter
▁serine
▁remedies
▁thirteen
▁pills
▁digestive
▁veto
▁Evil
▁Kap
Whatever
Along
▁empower
▁Near
▁Dash
FW
▁RPG
▁doll
COL
smtp
▁workspace
rrh
▁prosthetic
▁Rey
▁flames
▁shortcomings
▁intro
pts
▁Photoshop
▁FIGS
▁Password
▁Derby
▁tha
▁condo
▁sophomore
▁Moss
Views
▁attendant
ores
▁bees
gid
alg
▁SSH
▁oscillations
Communes
desktop
▁cin
▁overdose
▁Processing
Mal
Scheme
▁IDs
▁Judicial
▁playground
ASP
▁lectures
▁Leu
neurotransmitter
Wave
chie
tori
ToList
▁selections
▁EXEMPLARY
▁metropolitan
lean
▁Fields
arry
Shadow
Around
▁Zach
ATTR
▁maneuver
ByteArray
▁Cluster
▁lakh
prov
▁Socialist
▁deportation
agged
▁depart
▁Clearly
▁cushion
fluor
orange
▁wp
▁pancreatitis
buff
▁Inventory
kj
terra
fashioned
▁resolutions
▁Salvador
▁Islamist
Developer
▁shader
▁upregulated
▁wired
▁Exit
nix
▁CU
▁comprehension
▁Nixon
▁adorable
▁partitions
▁Petersburg
▁Hook
▁argc
▁cryo
▁wir
▁Chance
ocytes
▁sights
zia
fonts
ulu
▁subsidies
▁olfactory
▁Santos
▁soy
▁Progressive
Encode
▁Franco
Really
nder
▁Someone
▁governmental
Williams
PAP
Ryan
Cart
provide
linking
▁Questionnaire
▁conc
▁Solo
▁Ajax
▁tort
▁Nexus
MER
▁villain
▁trophy
▁glob
Preferences
▁english
▁iphone
▁buffers
▁Enforcement
▁reproducible
adv
▁Drake
▁possessing
▁Popular
▁disregard
▁payroll
Reilly
cards
▁Hamburg
sq
▁scoop
▁Superman
▁halfway
▁behavioural
▁troubles
▁dome
▁Miguel
▁cater
coat
▁wont
▁sponge
WO
▁CLI
▁restrictive
setState
▁pollutants
▁Uganda
protect
▁Ethics
▁Employee
▁Dry
IAN
▁branding
▁Door
▁Aid
fh
fore
Pack
Registration
▁Barn
▁Synthesis
ques
▁calculator
Affirmed
▁inhalation
▁grafting
▁rewarding
▁porque
Completion
redo
▁Designer
▁Mitch
▁dispose
Fake
▁volleyball
▁knot
▁Bean
viruses
▁transplanted
mult
▁confession
▁setTimeout
released
▁eg
ijerph
RAC
sda
▁declarations
▁additions
▁constituent
README
▁migrant
▁PCs
thead
▁beast
▁Probably
▁syringe
▁herbs
Named
▁Fl
▁nel
retin
poi
▁weaknesses
▁personalities
exposed
▁polished
CAL
▁Lemma
HN
▁stamps
latin
▁boo
LEVEL
PAR
▁Lakes
▁Palestine
Sea
shed
▁typ
▁fprintf
▁anticancer
▁Pride
▁Biology
kappaB
▁booster
▁Container
▁Bach
▁plateau
lated
▁graded
▁hooked
kara
▁Extension
▁overwrite
▁Mei
▁perimeter
spa
ures
▁Soc
▁presidente
reply
hong
▁JJ
Had
▁GCC
▁Indigenous
Padding
▁Extract
▁Atlas
chia
Ly
▁glycoprotein
getting
▁Engineers
▁GD
▁vegetarian
Natural
aipai
earth
▁Chef
▁promoters
▁ECM
▁impress
Fit
▁solidarity
Deployment
▁Meyer
chief
Seg
▁cha
Ken
bac
crea
▁Robertson
LET
▁Mage
mara
▁apples
▁biologically
cba
intensity
▁peg
elin
Med
▁storyline
▁guardian
Ann
dou
▁vel
Tip
vil
▁Staphylococcus
▁coupon
▁Previously
className
▁centralized
quoting
RCA
lte
tory
akka
▁confer
valueOf
▁motifs
▁scaffold
pert
CAD
▁inspector
commons
WEB
gers
▁Bud
been
▁spoon
▁starters
▁dent
▁UAE
▁aeruginosa
lau
jk
filters
▁HM
▁fist
mpi
eax
secondary
▁Bet
▁Presidential
▁establishes
approved
EH
Tac
▁withdrew
god
immunoreactivity
▁rh
Trade
▁disrupted
▁sterile
edinbmed
toolbar
packed
▁Hours
Literal
▁messy
PAD
Similar
▁absorbing
▁attracting
Claim
ient
rotation
▁bla
encoded
▁buff
▁abusive
▁transmembrane
akt
▁dysplasia
stdin
Daily
▁uncover
Unique
▁Ethernet
pressed
coll
▁mononuclear
Gallery
BH
▁Desert
▁patron
▁Rac
uw
▁comedian
utch
▁Zimbabwe
▁Wyoming
▁fue
Specific
▁Quant
▁legislators
▁Ole
▁Term
▁Legion
assertTrue
registration
Lower
▁mesenchymal
▁truncated
▁negotiated
▁circumferential
▁sewing
▁Boris
▁distraction
finding
▁detailing
emer
htaccess
Utilities
Credentials
▁backdrop
artist
quinone
vehicle
▁infra
▁textbox
▁slash
▁Goldman
▁cipher
pred
▁binder
▁dresses
fiber
▁Punjab
Expansion
▁terminology
▁discern
▁pacing
▁comparatively
▁endif
hui
▁Going
▁Medi
▁triumph
▁analyzer
XC
▁Gardens
solution
Fl
▁incompatible
▁conventions
particle
posing
▁CLAIM
Pending
tour
Coin
riz
▁Ul
them
▁photographers
▁giveaway
▁NI
conversion
▁Regardless
▁hassle
▁Abdul
malloc
▁Vatican
▁DIY
▁plat
lace
stars
▁niet
▁communist
Plaintiff
▁petroleum
▁dyes
▁integrin
grey
▁bored
▁shortest
▁handgun
▁cite
▁Elliott
Cons
▁Hide
▁multitude
▁rust
▁embarrassing
▁NSLog
ITEM
nak
▁nephew
▁Tumor
glucose
▁projecting
pip
▁virgin
Bucket
JO
▁partnered
xr
nts
Made
Arc
publish
iar
admi
TW
▁plt
concurrent
liner
encies
PACKAGE
shirts
▁Magento
▁homeowners
ALIGN
wedge
▁tales
▁fibrin
▁probabilities
DIV
▁Om
▁eBay
Someone
▁Fit
iku
minus
mixed
▁Poli
salt
isen
▁Loan
IDS
XR
tered
▁bonuses
▁transformations
said
▁bulky
▁phantom
▁exercising
Letter
iary
▁spawn
▁Vikings
getId
coord
▁segregation
▁extracting
▁Gaming
▁troubled
▁afforded
▁einem
urb
PROM
▁fil
HOW
GER
▁Istanbul
reno
▁fourteen
▁coloring
▁reflections
▁phage
▁traverse
BUFFER
▁parasitic
▁surrogate
▁beings
▁Pos
▁Apollo
▁analytic
ucker
tooltip
▁Introduction
blast
▁LB
▁costumes
▁alkali
Overlay
▁freshly
Remark
Apply
▁Casey
▁Apart
▁Hugh
icide
iao
compute
▁socks
Azure
▁lamina
▁IgM
WB
▁Psycho
▁perioperative
▁Rh
defense
▁warfare
▁Shot
Dispatcher
Qua
EAR
ifica
▁Brun
uci
▁statewide
eka
▁receptacle
▁fills
▁enthusiastic
sqlite
Joseph
sight
▁instrumentation
▁Sebastian
Dog
Actor
▁comb
▁bacon
endra
Hold
▁Strategy
▁replaces
▁dismissing
Street
▁Bulgaria
STD
chk
rud
▁Berry
▁demographics
angled
▁applicability
▁Gru
▁Nursing
▁Mae
▁tracer
▁Else
saccharide
▁autonomy
▁Export
▁woke
▁rot
▁climbed
▁Vehicle
▁vibe
▁Hir
ARP
▁alle
STS
▁tense
▁professionally
▁gradients
Cy
▁crab
stu
heid
studio
tai
▁condensation
TEMP
▁Andrews
▁Gross
Song
▁Colonel
▁paperwork
▁cavities
▁neuropathy
▁shirts
▁cereal
ANN
▁Packers
▁Elite
slave
orphan
aid
▁eternal
▁slipped
Prove
Vote
grpc
TLS
elastic
sap
Modern
▁duplex
▁Marsh
▁RI
obo
▁recorder
▁Kos
▁vitamins
▁weakly
▁Root
Absolute
RATE
▁pumped
▁Navigation
▁Drama
▁Liber
▁casualties
vk
▁numbered
▁Fixed
BAD
oct
BAR
▁bark
▁patio
▁degrade
LANG
chet
▁sym
Finished
imento
▁Maximum
CX
▁Corner
Patch
COPY
▁Regular
▁sixty
▁Guitar
▁impurities
▁velocities
▁blotting
SHORT
▁Wedding
CXX
▁Cards
▁rebuilt
▁premiered
FIX
▁flee
dub
citation
grave
Bug
▁suicidal
▁Influence
▁prerequisite
▁UT
Chicago
▁morph
▁Lys
ultidisciplinary
▁lact
▁commodity
▁MH
priority
▁outflow
diol
diag
cation
▁Tests
▁leukocyte
matcher
▁tibial
▁dawn
▁Hank
▁EventArgs
▁placenta
▁catastrophic
▁sailing
▁pond
▁Firm
founded
▁biofilm
knowledge
iability
fab
▁Jer
fas
▁blessing
▁biography
▁UPDATE
odes
▁Rica
▁desde
▁shaking
▁junctions
▁Blade
affe
▁Sanchez
tik
▁AFL
Gy
▁perfection
eating
RewriteCond
▁testicular
▁registering
stdlib
Donald
initialize
YEAR
▁Laser
▁Pinterest
tem
gk
backgroundColor
▁solids
▁granular
avatar
▁Brigade
Entries
▁tensile
arche
▁Cyto
▁civic
▁PEG
▁integr
▁parenting
Projects
kir
▁Era
▁neurologic
▁Brother
▁WORDS
▁referencing
▁malloc
Patients
yx
OW
▁vocabulary
gri
PropertyGroup
▁Bern
▁Bcl
ept
▁Videos
▁dull
Reason
▁Owen
topathological
Comparison
Guide
▁peculiar
▁Lt
▁accompany
▁Panthers
▁mosque
Ohio
▁sei
serif
Align
▁nie
▁visceral
ggplot
▁Merkel
▁delimiter
▁Leadership
▁Browns
▁NOTICE
dum
essel
▁Shield
kri
▁Tal
▁aber
scal
▁IM
Nice
▁algebraic
▁Effective
▁Holt
▁Pull
ZZ
▁bush
▁filaments
benzyl
lai
▁bullying
Honours
mination
▁REUTERS
▁Combined
nee
Figures
▁ulcers
▁vez
editable
Availability
Henry
oud
clar
Clinical
▁Jump
▁Binding
Currency
▁syrup
▁Walsh
▁divergence
▁Curtis
travel
thought
grown
inho
stem
Fr
▁Fen
▁swear
▁Mam
preventDefault
▁Coleman
ALT
▁Troy
mata
▁noninvasive
Present
▁Liquid
▁speculate
▁Brock
acht
▁Permission
Louis
hale
▁embraced
▁Ou
chel
▁miRNAs
▁shrimp
▁sucrose
anie
NX
▁prohibition
▁linguistic
harm
▁annotations
Hodgkin
▁riot
▁uh
▁wears
▁capacitors
ady
▁Links
▁qualifications
ICO
▁Cake
▁SIM
▁cette
▁fungus
headed
Rose
Unlock
▁Rum
eja
▁hydrophilic
KV
▁cognition
▁Regulation
▁Fuji
brew
gw
ports
▁allege
▁Rho
▁VT
▁Kri
hydr
▁pioneer
▁Craft
▁Moment
▁Epstein
▁appellants
▁serialized
▁outlines
▁feeder
Dar
intel
▁curiosity
GFP
▁fringe
▁bureau
XS
▁resonant
stance
Stub
uno
approximately
lute
paragraph
▁ACT
▁Directors
▁pictured
▁unnamed
▁curing
▁cracked
missive
Payload
textrm
▁masters
▁solitary
▁figuring
Um
Charts
▁Heavy
▁Pediatric
▁QString
universal
▁translational
Gene
▁diluted
▁scalp
▁Ride
▁judgments
▁Honey
Wire
eral
LH
▁affirmative
▁foremost
▁Objective
▁linker
SITE
coco
▁latex
▁Gul
Qu
▁homosexual
RELATED
▁miRNA
HttpClient
ijn
▁Bai
ues
▁modem
builtin
lw
▁Notre
escence
▁Politics
▁mosaic
HK
▁CW
▁optics
anim
▁Ng
almost
▁Diabetes
▁Sets
vig
▁blogging
Enjoy
birth
▁indexing
▁mug
aha
Conf
▁detached
NBC
prompt
FFFFFF
boro
purchase
Confirm
▁Myanmar
Visibility
▁chorus
▁gp
▁Chapel
▁Trading
▁announcements
gist
▁improperly
▁interconnected
▁pornography
▁tit
▁Quest
▁Sixty
▁utterly
▁Randy
▁leukocytes
▁forbidden
▁stray
▁Syndrome
▁phosphorylated
ipv
▁forgive
▁Barrett
ogg
▁nod
ojo
▁bargaining
▁philosophical
tea
▁hind
president
▁Finals
MMM
▁coll
driving
Scheduler
▁retains
▁DISCLAIMED
▁charitable
▁seg
▁Squadron
▁Template
bic
Fact
SES
Org
sbury
olla
▁notch
▁Bitmap
▁ingestion
▁Ranch
Editing
▁Repair
▁neighbouring
▁scarce
Decimal
▁colonic
▁lion
cru
fruit
tner
▁cemetery
Ui
▁ovary
PARAM
▁Maz
▁relieved
▁strangers
▁Apps
▁Lakers
▁Lar
▁conveyed
managed
▁debts
▁researching
iba
▁shoots
gio
▁Bundle
Referring
Drawable
ESC
▁raped
Pat
▁Articles
▁Apo
aemia
▁resonator
POS
▁infarct
Ball
▁aide
▁toast
▁photographed
WIDTH
Elem
Almost
▁commenting
▁hexa
▁therapist
▁suggestive
▁Rocky
▁ethnicity
▁privileged
Eye
hbar
▁unfamiliar
▁ozone
▁XI
▁stimulates
minister
▁Twelve
▁discrepancy
▁bipartisan
▁burial
▁purse
▁PU
▁Fighter
Finding
▁headphones
XM
▁ancestors
▁HashMap
▁flaps
izar
phospho
jobs
tropic
study
▁Singles
AAC
▁Mot
▁Croatia
▁Nonetheless
▁malfunction
▁eccentric
▁dilemma
CTC
▁iframe
▁pores
▁Northeast
▁Filter
Kill
▁nous
akh
▁RFC
▁Mang
▁Argentine
▁aneurysms
▁Electrical
▁Kenny
▁Dylan
▁Differences
ibril
▁concealed
▁performer
▁consolidation
▁spacious
vio
▁Distributed
▁inpatient
isk
▁gall
▁sho
Unable
▁Lor
▁vari
▁shipment
▁Endo
▁Oral
▁smiling
▁chooses
▁Hernandez
uth
▁Ober
▁blew
▁Gai
Bra
▁Crim
▁placental
opa
halt
▁fibres
partner
▁replies
▁Perez
Angel
cker
fid
▁Freeman
▁checkpoint
▁shootings
inject
▁avid
QC
▁palliative
▁successes
▁creditors
STOP
▁knowledgeable
▁offence
▁beard
▁irreversible
IDs
cdn
▁Tickets
▁stark
▁Detective
▁harvesting
▁melted
Links
arra
vd
▁implication
female
Companies
▁implicitly
tomcat
▁overwhelmed
early
Words
▁Dual
▁Were
dil
▁Thu
▁SVG
▁oval
mil
▁deferred
▁Tier
▁whitespace
Lake
Johan
▁Mercury
▁Initially
regs
ogue
Rhy
▁UEFA
▁strokes
tero
▁FE
seek
xaml
Americans
▁recalls
MainWindow
▁tiger
▁wraps
▁budgets
▁Icon
▁perl
▁Paint
▁Oblast
▁Hamiltonian
▁UCLA
▁Won
Road
▁workload
▁circadian
▁battling
tian
LDH
▁ich
▁catalogue
largest
buy
GIS
gtk
▁attackers
▁doubling
▁Examination
▁Applied
Dataset
allocator
▁Kind
poor
▁isomer
▁jerk
▁oscillation
legend
▁misdemeanor
appendChild
Preference
▁Rama
▁surgically
▁helical
▁slopes
▁diodes
finish
▁MTV
facing
▁Finn
SCs
Jean
Ram
axial
▁programmers
formula
▁Theresa
▁hemodialysis
▁Boss
▁dryer
▁nur
▁Hammer
▁cherry
▁floral
▁mattress
cord
▁prevailing
tls
▁Symphony
▁resilience
DFS
▁traced
dow
▁spans
▁marital
ndez
tina
▁Traffic
QOL
Ol
Possible
▁Productions
▁lottery
▁follicular
OPT
▁Burton
▁Podcast
▁Forbes
hav
population
▁painters
▁synergistic
bibliography
▁Miner
▁Rise
▁colitis
▁stacking
▁diagrams
▁reinforce
Website
▁fd
sei
▁Pseudomonas
Thr
▁cada
▁Dodge
▁todo
Margin
tables
▁hemi
▁Sher
▁persecution
metrics
▁Vitamin
WARN
cian
▁peanut
▁Hang
gat
▁routines
resistance
▁cerebellar
Choice
kick
▁Monica
▁Horizon
cere
College
▁modulus
qr
sai
▁palate
▁equivalence
▁Mock
▁Hoo
▁grad
RAD
▁compress
▁mins
lj
wolf
▁elder
▁imaginary
▁gears
Playing
▁allo
aci
OFFSET
father
▁Theme
▁SLE
evidence
▁technicians
rag
ICU
▁unhappy
quist
threshold
▁Mora
backup
▁boil
▁filament
▁methodologies
oca
pretty
ellen
Mount
▁contractions
uku
Std
▁Corporate
fight
fri
▁Oz
Proof
Des
▁ultrasonography
▁spice
orig
CBS
monitor
▁ticks
▁translations
gil
▁Str
▁deaf
▁Ellen
▁dessert
▁arsenic
▁frog
Demographics
▁MU
Pow
challenge
QD
▁CBC
▁intensities
▁settling
glyph
▁Thereafter
▁Drupal
▁sadly
▁Heroes
eks
▁whites
▁Af
▁recreate
▁lubricant
▁melatonin
▁reproducibility
thermal
rien
eil
▁princess
▁remake
Exchange
eous
colo
▁menus
▁dal
▁Values
Bin
lipid
▁cla
▁pitches
▁telescope
▁assassination
mongodb
▁Terra
▁Fill
▁Tank
UserName
▁analgesia
▁unidentified
▁inversion
sometimes
lion
▁hottest
werk
▁Producer
Studio
msdn
Mn
ject
Kar
▁Clara
▁inferred
etter
▁PIN
▁Charter
▁Layer
▁chasing
▁skeptical
Chan
▁Electronics
FREE
▁Belle
▁preseason
▁tak
▁Davies
▁Luther
▁autonomic
Wo
▁viewpoint
XXX
▁declines
sters
cke
arna
▁ligation
▁Handle
▁cue
▁Leicester
▁Acid
Houston
protection
▁notorious
▁Lauren
tac
▁phenol
▁duplicates
▁Chemistry
▁stochastic
▁accusing
States
▁snacks
▁peel
pow
Regarding
sible
iere
Employ
Fed
▁triangular
▁discoveries
PHY
▁nucleotides
▁pane
maximum
popup
▁Insider
▁Adding
▁Relative
▁deed
weather
UNI
bibr
▁Kindle
▁Gha
▁injecting
dream
CAN
▁presumption
luck
▁Kaplan
cla
esca
▁plaques
▁fetuses
ardi
▁wk
▁Flor
▁Graduate
▁moiety
▁PRE
▁Unexamined
▁elephant
ply
unicode
▁Saskatchewan
▁belts
▁Rebecca
cancer
▁branching
Cause
ventricular
significant
▁Derek
conditions
▁Chronicle
▁rein
▁miners
▁genres
RCT
UIKit
▁Monitor
▁sour
▁rl
▁Bax
Anim
▁accelerator
VAS
▁Cave
abel
UNIT
▁COX
tronic
▁magnificent
▁Kenneth
▁Broadcasting
▁practitioner
Automat
▁nephro
fname
▁Jag
▁fertilizer
▁Gateway
Guest
▁quilt
▁Bike
▁priests
agging
▁Bak
Ruby
▁Chicken
▁Vita
▁Position
▁cleft
▁VIII
▁advertisers
▁Persian
▁admitting
▁Setup
colors
months
▁Joshua
slug
▁Wol
▁Dental
Fu
▁modulating
billion
▁postal
▁knight
annotations
mapsto
▁enc
lbl
south
▁lifelong
▁Amanda
Chrom
▁stud
▁skate
▁lymphoid
Ste
▁dissent
▁Stern
▁anonymity
▁vulnerabilities
▁habitats
▁Chiefs
▁Conduct
▁marketed
▁advertised
▁oath
rze
atten
▁Gerald
▁Gall
Suite
things
▁PDT
▁Rem
▁upwards
▁intricate
Germany
payer
▁exceptionally
▁spun
▁Kerr
DAO
▁ceased
▁mandibular
▁Holocaust
Gas
eed
▁Philippine
▁WB
▁Identity
▁senses
▁ERK
▁sovereign
▁ranch
▁NPC
sek
states
pak
▁grind
fla
▁laptops
▁pneumoniae
fork
recv
Pet
▁throne
sass
▁Ebola
▁Generated
Culture
ije
NSURL
embedded
▁inception
▁emulsion
▁saddle
onCreate
▁Scene
ledge
fileName
▁zum
▁ASC
▁broth
▁Coron
▁Fernando
QA
▁Tory
▁Maple
▁Programming
▁formations
SPACE
▁Sau
▁Rex
▁refine
PLA
▁Guatemala
▁expire
Football
▁Santiago
fax
species
workspace
▁rug
Kevin
▁Cra
▁findViewById
▁retiring
▁agreeing
▁Foods
grams
VIP
▁vowed
▁poke
▁backlash
▁Songs
▁subpoena
▁CIRCUIT
reich
▁murders
biotic
kun
fir
plum
▁gcc
▁projector
▁SPI
▁ridge
▁suburbs
PFC
▁atop
▁sunny
▁Mormon
dismiss
▁ferry
▁architects
Television
iche
▁whip
Money
ungs
bei
berger
marine
▁construed
routes
▁steak
▁Wear
▁Sherman
▁Frame
TITLE
▁Retail
▁Boat
▁mediating
▁Schmidt
▁celebrations
MONTH
▁bats
▁strands
mation
▁DAY
▁enjoyment
mack
fib
▁attr
▁Scala
▁Guid
▁subsection
▁Hei
Critical
developed
whatever
▁Expert
Popup
▁gastro
sorted
galact
FilePath
DataType
▁Falcon
▁leaking
Square
▁deter
▁herbal
▁Bac
yam
▁classify
▁ignorance
▁myriad
decl
▁oxides
reviewed
▁warrants
▁eigen
▁Bam
Multiply
▁imminent
Connector
▁Mala
istas
▁Resolution
▁quadratic
troph
▁DESC
▁holo
▁anticipation
Grade
▁Pepper
▁NMDA
▁hats
eras
Royal
▁Required
▁hurricane
▁elucidated
CJ
▁Feature
▁Mara
▁KS
kil
Upper
brown
cms
excel
dpi
firefox
LUT
ACK
▁rewarded
▁dit
CAA
Codec
▁quantitatively
HCl
▁dissemination
limb
▁OVER
▁directional
▁Bul
nard
▁Solomon
▁Cher
▁lure
▁Kavanaugh
▁bioavailability
▁hacked
▁corridor
▁Maj
pla
viv
Bal
▁exemplary
▁abstraction
▁Mathematics
▁bli
▁unicode
▁lua
▁tomb
▁stretches
▁opaque
▁blogger
GPIO
▁Lim
▁homemade
▁warmth
▁Avi
XYZ
▁cottage
▁wonders
▁Cafe
finals
▁harmless
▁Projects
GU
▁classifier
▁doesnt
▁emulator
EventHandler
▁Hin
▁wolf
▁MCF
respond
Protect
▁crest
▁Gui
▁longevity
▁knockdown
Guess
near
commercial
▁erected
cxx
▁lied
pit
▁incontinence
▁buddy
▁mould
Investigators
Lord
▁erythrocytes
▁Robot
▁PN
attach
▁tasting
▁XX
hurst
Looks
▁cardboard
▁hype
bbs
Benz
precision
▁stakes
CFLAGS
▁Comedy
▁ripped
CUR
Docs
▁Emirates
unwind
lice
escu
Regex
rne
▁Ble
yg
▁dissipation
aking
zt
voice
▁Antarctic
Apparently
▁Traditional
▁Ideas
▁thicker
STREAM
hus
aram
IOS
▁getter
mvp
▁reacting
▁photosensitive
▁flexion
director
rable
pagination
▁reticulum
▁Caucasian
▁Flu
▁Hardy
observer
▁Hou
Sta
▁Ext
evi
QP
▁san
anning
AUX
▁farther
jm
▁invocation
▁stride
▁Apply
▁raft
▁disconnected
▁stirring
▁progenitor
▁Wie
ective
czy
DELETE
CTL
▁merchants
bud
▁Factors
▁initiating
▁Fal
programmatically
▁importing
Algorithm
Sim
▁cheek
▁thrombin
▁Shift
▁investigative
▁Nacional
▁Borough
▁Riley
dha
Coverage
▁wishing
▁Labs
▁Burn
▁nucleo
▁diameters
▁anthem
mmunosuppressive
▁DISTRICT
▁Infantry
▁estradiol
minimum
▁athletics
▁analogs
uru
▁vm
mute
▁LOG
▁Bring
▁gels
Science
▁JVM
▁divers
▁follicles
▁Wings
▁Hold
gear
VV
DEP
CFG
▁backs
▁grease
▁butterfly
western
▁CAT
Interceptor
ASM
Dave
▁remark
▁cites
▁ELSE
▁IEnumerable
▁heck
▁Into
▁Telegraph
technology
▁splicing
▁Meh
▁Helm
chol
▁Throughout
▁ecosystems
Qual
medical
mai
aspartate
▁Downtown
▁Yar
widehat
▁mediator
▁Ecuador
▁Emmy
Featured
apex
bron
▁connective
▁fried
blah
pon
▁Cubs
efficient
TRACE
▁Letters
MESSAGE
detect
▁Hos
▁mechanistic
▁fundraiser
moment
▁cyclin
▁Lot
▁shortening
eger
▁pumpkin
cate
Deploy
▁Seth
▁anatomic
▁caries
distributed
erna
Civ
borough
idos
▁Setting
▁Linear
▁porch
Disk
▁CIR
▁stringent
hostname
FDG
▁reservations
reload
wed
▁dispense
▁preg
▁escort
▁QB
▁Wat
▁grading
uther
▁Rolling
▁Compare
CLICK
reshape
lance
▁neighbours
Infant
▁framed
Asian
inde
clang
▁LI
▁bumper
nip
elected
▁reconsider
Bacteria
▁drawer
▁Curry
dish
ingly
▁injustice
▁sworn
ohn
hound
CONTROL
▁effusion
cci
stom
olefin
holm
Military
▁Lucy
▁Exercise
▁Durham
▁cared
▁prostaglandin
detach
▁Holl
▁cornea
mani
▁quarterly
guy
setValue
▁Desktop
▁histogram
▁ubiquitin
▁branded
▁ray
Variation
▁Crawford
▁Magnetic
Theta
▁Roe
▁LR
▁daytime
▁bronchial
▁forearm
tate
coordinate
▁Abe
MMA
▁memoir
▁layered
▁Romanian
▁patented
▁pouch
▁communicated
▁spoil
exc
Fish
stin
▁aria
aps
▁compensated
▁immersion
ives
▁Forwarded
leigh
▁Conservatives
Paste
▁crashing
▁onions
▁decentralized
▁transforms
▁Quantitative
additional
Written
REM
▁rebound
▁diary
oplus
graf
▁computerized
roman
respect
TAB
thus
▁Monroe
▁Claire
Serialization
overs
▁Wool
▁MOS
hari
DEN
▁TRUNCATED
▁terrace
▁ballots
▁inconvenient
▁plotted
nay
oya
▁QT
happy
MAR
▁inventors
evaluate
yle
often
▁motivate
▁banning
▁preset
Feedback
▁Lodge
Break
▁renew
▁Lone
▁fairness
Unincorporated
Concern
▁replicated
joint
▁Maya
▁playlist
▁aggressively
▁Survival
glia
▁acetylcholine
▁haul
▁Tau
▁Expo
▁Dogs
qjwq
▁escaping
ZX
Wind
▁Akt
▁hips
▁administer
▁distorted
▁quando
▁renin
DES
started
▁Brunswick
▁dynasty
▁wearer
▁Devil
▁flank
▁Citizens
boards
▁spikes
getData
▁coached
getClass
toc
cake
▁Vue
▁Quad
▁typo
Sys
▁immobilized
iler
Latest
Middle
▁uterus
▁elongation
▁aisle
▁whale
commands
▁avoids
▁servant
▁Organisation
assertEqual
▁Mes
▁swipe
▁Wagner
inar
hopper
tape
▁allergen
▁Gau
▁immunotherapy
Vendor
Edward
karma
▁flawed
QS
shoot
Serializable
▁awk
▁diagnostics
▁Daniels
▁carb
▁ga
▁renovation
▁inverter
Jackson
▁guitars
▁harmony
▁towel
Opt
▁StringBuilder
Absolutely
▁Shape
Alb
▁automate
YS
▁prod
oodle
Declare
▁brace
▁Journey
▁Cars
▁Prop
▁shotgun
medj
compose
ibble
▁rash
▁capitalism
Cheers
▁DEALINGS
▁Norfolk
Cont
▁Programs
▁Tribe
aran
effectiveness
confirm
▁masked
CRA
▁impulse
terdisciplinary
deck
Dao
Either
▁Indonesian
frames
gallery
cmake
angel
trick
▁Gujarat
Formula
▁Debtor
▁screenshots
rry
▁depicts
▁Electron
pump
▁punished
▁prohibit
conference
▁Gonzalez
stay
duty
▁Supply
▁trademarks
MON
▁scala
SIL
PDA
wor
▁Factory
▁Ped
▁Lives
▁Cardinal
▁gh
laden
▁Token
Extract
▁GFP
▁turbo
▁RBC
Cool
ection
chroma
▁AE
igger
▁transmits
▁Sang
▁sovereignty
▁phenyl
▁grim
▁turnout
▁smoked
▁Dai
▁Pretty
▁continuum
eder
▁colspan
▁battlefield
JM
Sky
▁pleural
formerly
▁LF
▁Ethiopia
ksi
▁nov
▁tutor
▁Kala
▁flora
▁secretly
▁epoxy
▁headaches
dock
Imagine
Species
▁Bing
▁Pierce
▁CMOS
setAttribute
Sym
ceil
▁Manitoba
oxa
▁Aqua
removeClass
▁LEFT
mars
▁creep
▁OB
▁contests
▁disasters
▁detachment
▁umbilical
▁gar
cust
markdown
▁Administrative
phys
Advanced
▁Critical
▁Conf
▁happier
▁gelatin
PEC
▁Split
sufficient
Pick
LESS
▁NFC
▁collectors
▁Breast
deps
▁submarine
Europe
IMP
▁Battalion
Cocoa
villa
▁Mans
Percent
Blood
▁owning
jor
▁Fragment
▁beetle
▁Marathon
▁customization
▁comfortably
ffer
▁conceal
▁spacer
▁MIC
▁Friend
Jul
▁hue
▁pulsed
ility
▁esp
▁rode
Jon
▁Hayes
▁puck
Cre
pvc
sir
JR
▁CASE
▁Conventional
rim
dashboard
Invoice
▁candle
Dispose
▁tho
anal
▁tailor
▁hypothalamic
acl
RIGHT
▁reciprocal
sberg
pil
▁Deutsche
▁Wake
rice
SAT
▁paddle
▁Lyon
▁Legacy
▁Dra
▁puede
▁regiment
EFI
▁DF
permeable
TIC
ActivityThread
▁Grammy
▁ANOVA
▁Fortunately
▁politic
▁MDA
▁bins
mili
Fer
pression
Neill
▁uncertainties
▁chin
▁percentile
▁Harold
Sink
▁ADD
▁hardship
Heart
▁patterned
▁astrocytes
▁Kickstarter
▁disse
▁deploying
▁Unix
metre
▁Bootstrap
▁metaphor
gation
▁superhero
▁acne
▁Chester
feel
Determine
▁raster
RMS
▁respiration
▁Venice
opening
ppa
ACS
SCO
abil
▁PPAR
▁Own
▁exploded
▁cli
Registered
▁merging
Characterization
▁Basin
▁Gut
lined
▁sim
▁Milk
rance
Characters
hap
▁macular
Records
▁Diana
▁ideological
▁ActiveRecord
▁aero
Git
UID
strand
▁Mask
▁tau
snapshot
ots
▁unexpectedly
appropriate
▁terrific
▁choir
▁Drink
Det
uy
▁catheters
▁analgesic
Weak
coder
▁Winnipeg
ookie
Sex
Mini
GFR
difficult
▁Ready
curve
eze
▁Folk
▁Symfony
▁iodine
▁IQ
blocking
▁Accept
▁divorced
▁consultants
destruct
▁femur
▁Greene
KD
mkdir
▁resumed
▁refrain
▁PGE
▁modulator
▁Scheme
▁AUTHORS
gur
▁Pole
zig
▁banana
GCC
▁hypoxic
▁Spurs
▁concise
Gui
▁Alexandria
▁dislocation
glob
▁sway
▁Herbert
▁Stro
qe
▁knob
unix
▁Til
▁exits
Assignment
▁Rd
RESULT
▁deprived
▁ruins
Compression
mund
▁Morocco
▁Rochester
wrong
▁mansion
Magento
▁worm
▁Myers
▁plating
orden
▁unemployed
▁outbreaks
DEC
Disabled
paw
nginx
ESP
▁fulfilling
MAIN
▁deserved
▁eruption
▁Waters
▁slug
▁expr
enic
▁upheld
Ci
▁stratified
misunderstanding
▁Integration
▁wreck
▁brewery
▁biologic
▁Territory
▁rodents
▁Organic
▁Sultan
▁Unknown
▁Constant
▁Noah
▁propagate
Hence
rup
▁homicide
▁externally
▁peroxidation
Typically
▁SIG
▁Butter
serve
mpa
▁sporadic
▁Corbyn
▁reinforcing
▁Walking
▁hospitality
▁unpleasant
vt
▁voyage
▁XXX
▁Bau
▁flick
▁Sens
Mil
▁Away
ppt
▁predefined
▁undertaking
▁postpartum
Stephen
Partial
▁Devon
Athletes
installed
▁DU
▁zombie
GPU
CONF
potent
▁aunt
Period
▁Height
▁Mint
▁Ravens
▁artifact
▁rodent
blur
▁batter
Indicator
▁PATH
tini
▁Firebase
▁ASCII
▁academics
▁Purchase
matter
▁Mand
actually
zoom
THIS
▁Interstate
▁esc
▁magnification
SIS
▁carved
▁ensured
eyed
LES
▁galleries
rdf
existent
Bullet
▁clashes
FILTER
osta
▁Frankfurt
holders
▁Gon
▁extremity
against
▁LinkedIn
▁Cla
▁Raja
lx
▁plastics
▁flowering
▁Singer
▁Yoga
allowed
▁Approximately
▁bud
▁efficiencies
▁dentist
▁mutated
▁preclinical
mongo
▁Stark
▁curr
ater
▁agar
▁anaesthesia
▁punish
▁Senators
directional
▁Teen
Circle
▁distributor
▁axons
▁decisive
SEP
grant
Printer
▁Loss
Bitcoin
▁Fel
▁kHz
▁ambulatory
xFF
itten
▁Nobody
▁Cache
QQ
optim
▁giants
pane
blk
subscription
Kan
▁supermarket
POWER
▁sleeves
Muslim
Barr
County
Catalog
▁Liver
▁circumvent
▁NPR
▁USC
▁shelters
▁verbose
DataSet
Connor
▁Blockchain
▁gunshot
Regards
logout
Founded
▁Hil
give
▁Rom
AUTHOR
records
▁Dress
▁Fusion
robot
▁Tucker
▁authenticate
▁wy
▁judging
▁Customs
CSC
▁grandson
wav
▁inversely
ULL
▁Jared
Predicate
▁superstar
▁fertilization
dates
▁presses
bha
▁setter
▁rotates
Attach
▁optionally
ution
▁Scanner
▁standings
icity
▁recycle
▁Contemporary
▁Sav
▁staring
onnie
Silver
▁alloys
▁programmable
HAS
HttpServlet
▁neonates
AES
▁interconnect
catenin
Yu
▁Wellington
▁Simmons
Fair
▁Hel
Maximum
▁cranial
▁hacker
Sin
PRODUCT
cult
▁Cities
▁augmentation
▁GF
▁lobbying
▁Testament
▁Eg
▁HSP
▁Corr
▁freezer
▁multilayer
▁lonely
▁sacrificed
▁oz
▁anomaly
▁lymphatic
▁Leaf
▁toolbar
ellar
zak
received
rimin
▁abscess
▁geom
sms
▁Parents
stretch
▁inquiries
RIA
GLOBAL
ARC
ClassLoader
Congratulations
▁Confederate
▁asymmetry
Leading
▁handheld
▁reviewers
▁lifespan
TEN
embed
polis
Restore
▁gratitude
TAC
IRQ
tracking
Vertical
▁assistants
▁burner
bbb
▁WW
▁deflection
▁freshwater
▁PNG
▁Spot
▁lei
Photos
▁Sally
▁tack
exist
▁minimized
CheckBox
PROP
OTA
▁weighs
▁unusually
PAL
CY
▁BMP
unda
▁CTL
propyl
▁TN
Coord
▁footer
▁ruler
▁Ferr
Ty
equ
▁reminiscent
▁fined
▁Giant
▁specializes
▁Nicole
Functions
▁tachycardia
doped
Professor
▁Gospel
▁expires
▁Bran
Kat
▁Importantly
▁jungle
▁Inhibition
ood
Translation
genous
▁antique
▁analogy
▁stuffed
unde
▁disciplinary
GAL
atter
▁magnets
▁threatens
Simon
MORE
▁luggage
▁manipulating
bromo
Different
Ir
asco
▁sofa
Manifest
▁Malay
▁airflow
▁NB
▁optimizing
▁Auburn
bugs
▁positional
▁FD
dtd
uso
▁cautious
Hill
dif
▁conceded
▁Photography
▁Princeton
▁radiographs
▁Okay
ambo
EXIT
▁Observatory
▁amazed
▁chlorine
▁affection
aryl
Statistics
▁trapping
▁funnel
▁malt
▁Bolton
▁usb
Senior
▁conta
▁millilitres
Courtesy
▁Haiti
▁Holder
themed
▁matchup
punk
▁bacterium
tee
inda
UIColor
organic
renal
▁pouring
RIS
cks
▁prosperity
Roll
▁Species
▁remix
▁venom
▁Fabric
compat
LIGHT
▁Rec
▁BMD
▁suppressing
▁psoriasis
▁Fischer
▁speeches
ugg
ieren
▁Skype
▁PRIMARY
IJ
alta
tokens
▁noisy
PQ
toria
ENGINE
▁retardation
Going
▁Equipment
▁pupil
lux
▁prevail
assoc
▁glial
Carl
otropic
▁vers
▁Alien
▁Darwin
CRP
▁unlocked
▁Sheffield
▁uno
nagar
▁radially
Population
▁repertoire
Bl
▁IoT
▁Temp
Ob
vh
Night
hosts
▁extinct
▁Lem
▁allograft
Physical
▁billionaire
▁Steelers
kamp
▁breaker
roc
▁Certain
▁gal
Paths
▁Papa
agin
▁ctrl
▁ERR
▁SCI
▁tram
perp
▁tedious
Questions
Den
DJ
NOTES
▁popped
▁economists
Smooth
enden
▁epoch
UST
▁architectures
▁Ind
▁conv
cott
▁Latvia
▁inclination
covered
▁Newman
bear
molar
Applications
▁columnist
▁cafe
▁Preliminary
▁Sala
▁utf
▁Shannon
Summer
mento
▁Sons
▁idol
▁Jamaica
▁hardcore
▁Marshal
chrono
▁Rou
dens
▁brewing
▁Fil
▁Formation
eries
▁gran
ROW
▁closures
▁flooded
▁presenter
▁Cul
▁charities
▁cheating
david
gill
▁implying
▁hurry
▁bal
▁fecal
▁Wistar
Middleware
▁ethyl
▁handsome
sharp
stadt
gee
Cook
firm
▁Roosevelt
▁myocardium
▁compelled
▁Pale
▁uploading
▁homozygous
▁seamless
▁TCR
▁sucks
▁Clock
▁exercised
▁Malcolm
cient
▁neoplasms
umbo
rri
▁Films
▁Midwest
▁Abbey
sector
▁refuge
▁landfill
graft
cold
▁understandable
benzene
▁squash
▁engages
MARK
sponsored
▁methodological
ipper
▁composers
Ang
▁mosquito
▁Nik
hearted
▁encrypt
▁sail
▁kilo
▁crater
▁MX
▁Import
▁Serv
▁Hom
immun
▁slurry
▁contextual
▁Utility
▁Jacobs
▁bosses
hya
▁forecasts
▁infused
▁Mick
Particle
▁projectile
▁expenditures
▁Embassy
▁dexamethasone
▁Dee
▁mural
UX
▁phyto
▁Huawei
▁technician
▁LLVM
▁Mile
nec
▁colonization
▁inoculated
bob
Dutch
RQ
consul
heavy
▁uranium
activ
affinity
mechanical
▁crawl
acetate
▁docking
▁fellowship
▁assayed
uve
▁LL
▁dragging
Minimum
violet
▁Generate
▁Pursuant
▁penta
▁ignores
▁criticised
bun
ases
▁Kris
Define
▁reflector
dial
▁Generic
JAVA
anno
▁forefront
▁positivity
▁Income
intervention
pia
▁countryside
▁Yard
Fixture
WN
▁INSERT
▁antioxidants
▁Cop
uki
▁Tara
difference
DSL
ules
▁algo
▁cultivated
robo
▁TW
▁Christine
▁lb
▁fluoro
▁debit
grin
▁Bey
▁condemn
Beyond
ahan
▁relocated
abl
Staff
Ze
▁tactic
tiva
lium
▁repositories
▁borrowed
Composition
▁censor
rink
▁veterinary
▁conscience
zd
▁Healthy
auer
▁TFT
▁BI
calib
▁Tanzania
▁Sexual
xhr
▁Gender
Trust
bull
lining
Rel
▁emphasizes
lime
SIG
consumer
▁diplomat
Contacts
▁Malaysian
▁Fraser
▁algae
▁Gur
▁premiums
▁Fern
▁Coming
Thousands
▁interruption
▁Gat
▁Cara
▁counters
Cho
MET
Const
jr
▁Listen
Hours
potential
integration
▁Nash
▁Bright
▁Jupiter
▁Assuming
textField
▁curiam
▁sausage
▁Serbian
Half
Pt
▁Filipino
▁shorts
▁Fle
▁oblique
▁glove
▁voiced
STEP
▁lieutenant
▁dermatitis
▁militant
▁tipo
Shi
Heap
Lat
jboss
fur
▁vicious
▁bolster
receive
▁flown
conviction
▁LN
Js
sterol
thumbnail
▁mechanic
mux
vocation
▁statistic
▁problema
onian
▁theatrical
dores
bios
▁NONINFRINGEMENT
▁dipole
NOR
mathsf
goto
Principal
Simply
▁wallpaper
olds
Rivers
▁disappears
▁skiing
▁Copenhagen
▁souls
▁wellness
▁audition
▁worthwhile
▁Replace
▁Mali
webpack
▁lime
tivo
▁slap
oun
▁prog
▁Duty
icu
▁greeting
guan
▁Built
▁Avengers
▁breasts
Party
Browse
▁bl
▁behaviours
▁bidding
▁sunset
jump
▁sein
▁INTEGER
▁Stephanie
objc
carboxy
▁helm
▁anastomosis
▁textbook
vertex
Bel
▁randomised
▁hurts
▁Said
▁professors
frm
aciones
fried
▁predators
▁Judiciary
▁chaotic
connector
gol
lessly
▁Youtube
▁vai
zoo
▁Declaration
Numeric
▁correcting
▁Items
provided
▁stripes
▁impairments
▁Sensor
▁compel
▁buck
▁glorious
▁breastfeeding
jd
▁captive
▁dislike
HER
procedure
▁Polar
▁Reader
▁Gore
instagram
▁Potential
META
thank
Others
▁Zip
▁luxurious
▁foreclosure
▁knit
rather
obacter
▁circumstance
▁physiologic
▁interpreting
▁invoice
▁CMV
uar
leucine
TCA
▁empathy
▁skipped
draft
▁enumerate
▁Albany
xxxx
footnote
tiff
▁Managing
habit
▁purge
▁bolts
▁equip
▁Einstein
▁Duck
gadget
Modify
adj
▁myeloma
spire
▁kann
▁bucks
▁Heather
PART
oti
▁Cisco
kern
bench
▁Animation
SMC
cies
rop
▁Pizza
snippet
otte
▁Ancient
valued
▁Moving
flo
erate
▁Treaty
▁Affordable
▁textile
wig
YO
▁menstrual
XMLSchema
▁blocker
▁heightened
▁entertain
mari
closure
bj
nature
▁Moo
Mrs
▁Possible
dictionary
▁ces
▁amplitudes
▁cytosolic
▁calcification
Rated
▁sixteen
ligt
▁lenders
Wild
▁INFO
dust
indole
▁LGBTQ
▁Warning
▁hourly
▁Psychology
▁Timothy
arson
▁Leslie
ected
▁semen
aru
developers
Conv
▁tunnels
hiro
▁Correlation
▁proudly
▁heretofore
eke
▁revival
▁paraffin
sourcing
▁enlargement
▁imprisoned
ycombinator
▁roadway
Fly
Fred
▁topping
▁Tips
solute
▁orifice
▁protector
▁TODAY
▁Gab
▁Pokemon
▁Conn
▁Inner
Officials
▁Maxim
Relation
carousel
▁Discover
▁smarter
▁wives
▁pun
Blocks
▁Katie
▁impede
▁mRNAs
raz
MySQL
Cover
▁Mets
ecto
▁Advisor
wife
▁sewer
CTX
▁Samples
▁visualized
▁boosting
▁illicit
▁refinement
Houses
faces
yar
▁hated
▁elapsed
Javascript
▁Mori
▁Dock
▁shielding
▁Atomic
▁mV
▁tasked
▁stdout
ningen
▁revelation
▁obsessed
▁trimester
▁effluent
▁retaliation
▁Germans
▁complimentary
ijk
▁Lung
mot
oste
reports
INNER
tch
▁tread
▁Legends
▁Nazis
Serial
smooth
viewport
▁attrs
Late
Saving
fred
▁Kiss
▁cosmic
Gradient
getMessage
UIViewController
▁ballistic
ilia
▁fireplace
▁boarding
lost
flip
▁mushrooms
▁Runner
▁shoppers
▁pops
arin
▁Flex
▁ASD
▁Imp
▁hacer
NSDictionary
reme
▁coolant
▁chromatographic
▁parcel
▁coincide
▁Particularly
photon
Female
crime
▁mic
▁servants
Phys
▁quiz
Throughout
▁landscapes
CBF
Arn
▁extern
aje
crim
▁picnic
▁Conditions
▁sap
apper
ASH
▁Moh
ight
▁Done
▁Insert
SPI
▁horrific
▁Porsche
▁bitch
adam
Waiting
TRANS
gir
peace
▁dynamical
▁upregulation
▁cadmium
▁poultry
▁Officers
trix
ADO
▁ADP
Swift
DLL
▁Outside
pag
▁Macro
Creation
▁stalk
▁Alexa
▁Pixel
▁sibling
▁Cork
▁discard
cron
▁Classification
tah
pwd
▁afterward
chair
▁negotiation
▁rude
▁compliment
▁isotope
strut
Polygon
▁trajectories
▁Prague
genes
maid
▁Dep
▁stumbled
▁Interaction
▁intermediates
▁Fab
▁procurement
lette
substr
▁manifested
▁Originally
ibly
FLOAT
▁thumbnail
▁evaporation
▁RSA
▁Weekend
derm
▁broadcasts
evolution
▁glycogen
wyn
toBe
Lazy
▁AU
having
Voice
▁Bool
▁sqlite
kDa
▁sel
▁regimes
▁Breaking
Semi
Slide
▁Supervisor
▁highways
▁broadcaster
▁Jos
Rod
gnome
▁Integrated
▁Glad
NBA
▁Slow
▁perinatal
▁Celtic
▁Hoffman
▁Nearly
▁AUC
▁momento
▁BU
XD
Debugger
JE
▁Findings
yz
▁lamb
▁evacuated
hoff
▁McA
▁halves
▁campuses
cash
idas
Avatar
punct
▁mehr
SX
▁ambition
ncy
▁seekers
▁conveying
▁Devices
AUTO
jos
CRC
club
▁TI
▁Dodgers
kul
Baby
Thu
▁burglary
▁onboard
▁Noble
STA
uous
▁uit
Medical
Dimensions
Vis
MEN
▁conjugated
▁TLS
▁bathrooms
atio
ymp
Pause
Important
JK
▁Wis
▁chars
▁terrifying
▁concluding
coords
▁slack
▁disulfide
▁mercy
▁Plot
▁clustered
methylene
cq
Rather
eros
izo
▁blends
▁alley
▁Warsaw
▁rom
itive
▁historians
▁tout
▁Weiss
▁Cherry
▁Claim
▁Excellence
▁invites
PID
Gly
▁infinity
pun
▁Partner
▁HK
▁zeros
Hotel
▁depleted
Inject
Entities
LAN
▁OT
Conventionally
▁Doing
▁depicting
finished
roz
▁Hampton
▁electronically
▁CRM
MES
▁wildcard
▁Gol
▁anchors
defaults
▁inclu
▁demon
XA
Train
plasm
▁concur
Observable
▁Defender
Checking
Flush
▁chapel
▁Diagnostic
▁Petro
▁myosin
joy
▁knocking
▁BN
oki
▁daemon
iy
cheat
SPEC
laws
▁equitable
▁instantiate
▁Founder
Crypto
▁dbo
ulla
▁bishops
Isolate
tore
otro
▁Issues
▁contingent
▁calves
atha
▁Burger
north
▁APC
▁Portal
▁hurting
▁tangent
▁obsolete
SYSTEM
tank
▁skew
▁silencing
glu
iator
Gun
certain
GK
▁Skills
▁Nissan
▁Width
▁GPIO
INA
STER
azar
▁Resistance
mme
▁puzzles
Jason
▁Ottoman
▁Economy
Glu
▁unofficial
Interesting
▁territorial
Av
▁prophylactic
Plug
▁grandchildren
illy
ZE
▁Fre
▁Webb
▁dumped
pec
▁HSV
▁Alcohol
assi
Chrome
coded
haven
▁Pirates
▁pleading
▁Float
▁weakened
moon
▁Kick
Processing
itative
means
▁Wrestling
▁Quantum
▁Cairo
DataGrid
▁Plum
▁unsupported
▁Halo
▁Operator
cilia
▁DX
bles
Doctor
elis
▁Wai
▁Johnston
WASHINGTON
▁machining
▁Ticket
Sponsor
▁descend
▁ubuntu
▁interpolation
▁migrated
itre
▁Secure
▁apnea
▁interrogation
bmp
Mexico
nih
▁longitude
feeding
gzip
▁infertility
rude
▁ectopic
▁scalable
▁Bolivia
farm
▁demolished
▁fasci
▁equi
▁Tall
▁groundwater
▁Cotton
▁newline
terms
Translate
▁Sak
continue
mails
mTOR
▁cardiomyopathy
Sphere
ghi
wana
processed
zzo
▁terminus
Brush
Disable
▁distinguishing
▁Dy
▁hereditary
mart
▁Shim
shim
enstein
Alarm
▁Graf
▁Clement
▁villa
▁dissolve
▁patrons
baum
▁Cochrane
Mbps
lame
▁Majority
▁trainees
▁Facility
▁pyramid
grove
charged
▁drastic
▁Macedonia
▁mitotic
▁emulate
▁affective
▁Cycle
▁NZ
▁Fau
▁Tourism
caster
possibly
▁Translation
▁exhibitions
▁qq
▁Cron
dium
triangle
ished
▁mobilization
Transformer
▁craving
dummy
▁Elder
erase
▁presidents
LW
▁Swing
volt
jl
▁intraocular
▁wafers
PLAY
▁tapping
▁Ninth
▁looping
Idx
▁obsession
Req
Protected
▁Dept
▁Mohammad
arginine
▁BIG
▁digitally
▁filmmaker
redis
▁Matthews
Nobody
▁OpenGL
BYTE
seg
▁Richards
▁alarming
Linear
young
▁thermoplastic
▁Dominican
▁Shared
MMC
OPS
▁dug
▁Spe
▁Gala
RSA
▁taxa
▁Macron
▁Interactive
▁informant
▁subspace
▁Vale
▁killings
▁persuade
▁converges
aug
LIMIT
Station
brace
dian
▁evaluates
▁orient
▁celebrates
▁Kee
Repo
▁goodbye
▁glut
▁spices
▁trough
lash
▁surprises
Ger
▁Sig
FV
▁EGF
stasis
▁Mechanical
▁Bash
▁Archbishop
▁contractile
▁cationic
glut
▁examiner
▁Lat
▁Aviv
▁Transform
urban
firstName
▁Tak
teacher
atan
goog
▁Employment
▁Above
▁tally
libc
vita
▁Eugene
Tables
avers
▁Spotify
▁graphite
▁storytelling
▁READ
Better
severe
▁arcade
▁Exposure
▁liposomes
Sock
▁Reporting
ured
vern
professional
▁fountain
▁cyclase
▁BW
Migration
▁Jacksonville
▁prolong
▁teachings
▁Partial
▁WHAT
caffe
Correction
▁minors
▁Chocolate
▁outrageous
ListBox
corner
▁Fruit
filepath
▁gospel
▁retrograde
▁CURLOPT
▁characterised
Congress
ENA
▁Kul
ktv
friends
▁Reason
▁Taka
▁eth
▁freelance
▁aberrant
sak
holes
consider
Meet
ares
▁Mead
▁survivor
▁endeavor
▁elusive
Benchmark
manage
▁preferentially
▁poets
[...]
